{
  "version": "1.0",
  "truncation": null,
  "padding": null,
  "added_tokens": [
    {
      "id": 0,
      "content": "<|endoftext|>",
      "single_word": false,
      "lstrip": false,
      "rstrip": false,
      "normalized": false,
      "special": true
    },
    {
      "id": 1,
      "content": "<|im_start|>",
      "single_word": false,
      "lstrip": false,
      "rstrip": false,
      "normalized": false,
      "special": true
    },
    {
      "id": 2,
      "content": "<|im_end|>",
      "single_word": false,
      "lstrip": false,
      "rstrip": false,
      "normalized": false,
      "special": true
    }
  ],
  "normalizer": null,
  "pre_tokenizer": {
    "type": "ByteLevel",
    "add_prefix_space": false,
    "trim_offsets": true,
    "use_regex": true
  },
  "post_processor": null,
  "decoder": {
    "type": "ByteLevel",
    "add_prefix_space": true,
    "trim_offsets": true,
    "use_regex": true
  },
  "model": {
    "type": "BPE",
    "dropout": null,
    "unk_token": null,
    "continuing_subword_prefix": null,
    "end_of_word_suffix": null,
    "fuse_unk": false,
    "byte_fallback": false,
    "ignore_merges": false,
    "vocab": {
      "<|endoftext|>": 0,
      "<|im_start|>": 1,
      "<|im_end|>": 2,
      "!": 3,
      "\"": 4,
      "#": 5,
      "$": 6,
      "%": 7,
      "&": 8,
      "'": 9,
      "(": 10,
      ")": 11,
      "*": 12,
      "+": 13,
      ",": 14,
      "-": 15,
      ".": 16,
      "/": 17,
      "0": 18,
      "1": 19,
      "2": 20,
      "3": 21,
      "4": 22,
      "5": 23,
      "6": 24,
      "7": 25,
      "8": 26,
      "9": 27,
      ":": 28,
      ";": 29,
      "<": 30,
      "=": 31,
      ">": 32,
      "?": 33,
      "@": 34,
      "A": 35,
      "B": 36,
      "C": 37,
      "D": 38,
      "E": 39,
      "F": 40,
      "G": 41,
      "H": 42,
      "I": 43,
      "J": 44,
      "K": 45,
      "L": 46,
      "M": 47,
      "N": 48,
      "O": 49,
      "P": 50,
      "Q": 51,
      "R": 52,
      "S": 53,
      "T": 54,
      "U": 55,
      "V": 56,
      "W": 57,
      "X": 58,
      "Y": 59,
      "Z": 60,
      "[": 61,
      "\\": 62,
      "]": 63,
      "^": 64,
      "_": 65,
      "`": 66,
      "a": 67,
      "b": 68,
      "c": 69,
      "d": 70,
      "e": 71,
      "f": 72,
      "g": 73,
      "h": 74,
      "i": 75,
      "j": 76,
      "k": 77,
      "l": 78,
      "m": 79,
      "n": 80,
      "o": 81,
      "p": 82,
      "q": 83,
      "r": 84,
      "s": 85,
      "t": 86,
      "u": 87,
      "v": 88,
      "w": 89,
      "x": 90,
      "y": 91,
      "z": 92,
      "{": 93,
      "|": 94,
      "}": 95,
      "~": 96,
      "¡": 97,
      "¢": 98,
      "£": 99,
      "¤": 100,
      "¥": 101,
      "¦": 102,
      "§": 103,
      "¨": 104,
      "©": 105,
      "ª": 106,
      "«": 107,
      "¬": 108,
      "®": 109,
      "¯": 110,
      "°": 111,
      "±": 112,
      "²": 113,
      "³": 114,
      "´": 115,
      "µ": 116,
      "¶": 117,
      "·": 118,
      "¸": 119,
      "¹": 120,
      "º": 121,
      "»": 122,
      "¼": 123,
      "½": 124,
      "¾": 125,
      "¿": 126,
      "À": 127,
      "Á": 128,
      "Â": 129,
      "Ã": 130,
      "Ä": 131,
      "Å": 132,
      "Æ": 133,
      "Ç": 134,
      "È": 135,
      "É": 136,
      "Ê": 137,
      "Ë": 138,
      "Ì": 139,
      "Í": 140,
      "Î": 141,
      "Ï": 142,
      "Ð": 143,
      "Ñ": 144,
      "Ò": 145,
      "Ó": 146,
      "Ô": 147,
      "Õ": 148,
      "Ö": 149,
      "×": 150,
      "Ø": 151,
      "Ù": 152,
      "Ú": 153,
      "Û": 154,
      "Ü": 155,
      "Ý": 156,
      "Þ": 157,
      "ß": 158,
      "à": 159,
      "á": 160,
      "â": 161,
      "ã": 162,
      "ä": 163,
      "å": 164,
      "æ": 165,
      "ç": 166,
      "è": 167,
      "é": 168,
      "ê": 169,
      "ë": 170,
      "ì": 171,
      "í": 172,
      "î": 173,
      "ï": 174,
      "ð": 175,
      "ñ": 176,
      "ò": 177,
      "ó": 178,
      "ô": 179,
      "õ": 180,
      "ö": 181,
      "÷": 182,
      "ø": 183,
      "ù": 184,
      "ú": 185,
      "û": 186,
      "ü": 187,
      "ý": 188,
      "þ": 189,
      "ÿ": 190,
      "Ā": 191,
      "ā": 192,
      "Ă": 193,
      "ă": 194,
      "Ą": 195,
      "ą": 196,
      "Ć": 197,
      "ć": 198,
      "Ĉ": 199,
      "ĉ": 200,
      "Ċ": 201,
      "ċ": 202,
      "Č": 203,
      "č": 204,
      "Ď": 205,
      "ď": 206,
      "Đ": 207,
      "đ": 208,
      "Ē": 209,
      "ē": 210,
      "Ĕ": 211,
      "ĕ": 212,
      "Ė": 213,
      "ė": 214,
      "Ę": 215,
      "ę": 216,
      "Ě": 217,
      "ě": 218,
      "Ĝ": 219,
      "ĝ": 220,
      "Ğ": 221,
      "ğ": 222,
      "Ġ": 223,
      "ġ": 224,
      "Ģ": 225,
      "ģ": 226,
      "Ĥ": 227,
      "ĥ": 228,
      "Ħ": 229,
      "ħ": 230,
      "Ĩ": 231,
      "ĩ": 232,
      "Ī": 233,
      "ī": 234,
      "Ĭ": 235,
      "ĭ": 236,
      "Į": 237,
      "į": 238,
      "İ": 239,
      "ı": 240,
      "Ĳ": 241,
      "ĳ": 242,
      "Ĵ": 243,
      "ĵ": 244,
      "Ķ": 245,
      "ķ": 246,
      "ĸ": 247,
      "Ĺ": 248,
      "ĺ": 249,
      "Ļ": 250,
      "ļ": 251,
      "Ľ": 252,
      "ľ": 253,
      "Ŀ": 254,
      "ŀ": 255,
      "Ł": 256,
      "ł": 257,
      "Ń": 258,
      "ï¼": 259,
      "ä¸": 260,
      "ãĢ": 261,
      "ï¼Į": 262,
      "äº": 263,
      "çļ": 264,
      "ãĢĤ": 265,
      "çļĦ": 266,
      "æľ": 267,
      "åħ": 268,
      "åľ": 269,
      "åı": 270,
      "å¹": 271,
      "æĸ": 272,
      "ä»": 273,
      "å¤": 274,
      "åĪ": 275,
      "å¹´": 276,
      "åį": 277,
      "å°": 278,
      "åĲ": 279,
      "å®": 280,
      "ä½": 281,
      "çĶ": 282,
      "æĹ": 283,
      "æĺ": 284,
      "åŃ": 285,
      "å¾": 286,
      "äºº": 287,
      "åľ¨": 288,
      "åĽ": 289,
      "å¸": 290,
      "ä¸Ń": 291,
      "ãĢģ": 292,
      "ä¸Ģ": 293,
      "æĪ": 294,
      "å·": 295,
      "åĬ": 296,
      "éĢ": 297,
      "ä¹": 298,
      "çī": 299,
      "20": 300,
      "éģ": 301,
      "è¡": 302,
      "çĤ": 303,
      "ï¼Ī": 304,
      "ï¼ī": 305,
      "åº": 306,
      "æŃ": 307,
      "æĺ¯": 308,
      "è¿": 309,
      "çĤº": 310,
      "éĩ": 311,
      "åĮ": 312,
      "æľī": 313,
      "æľĪ": 314,
      "å±": 315,
      "åĴ": 316,
      "æĹ¥": 317,
      "19": 318,
      "åĴĮ": 319,
      "å¤§": 320,
      "æĶ": 321,
      "æ°": 322,
      "èĩ": 323,
      "éĻ": 324,
      "æī": 325,
      "èĢ": 326,
      "åĩ": 327,
      "å¼": 328,
      "æķ": 329,
      "ä¼": 330,
      "æĿ": 331,
      "æĭ": 332,
      "åľ°": 333,
      "éĽ": 334,
      "å¥": 335,
      "æĻ": 336,
      "éĥ": 337,
      "çĽ": 338,
      "ç¾": 339,
      "æĸ¯": 340,
      "ç»": 341,
      "æ³": 342,
      "ç«": 343,
      "åľĭ": 344,
      "è®": 345,
      "ç§": 346,
      "åĨ": 347,
      "èĪ": 348,
      "æł": 349,
      "å¯": 350,
      "éĿ": 351,
      "æ²": 352,
      "ä»¥": 353,
      "çĲ": 354,
      "äºĨ": 355,
      "åĽ½": 356,
      "å½": 357,
      "åĢ": 358,
      "âĢ": 359,
      "åī": 360,
      "æµ": 361,
      "åŁ": 362,
      "æĸ¼": 363,
      "æĪĲ": 364,
      "è¯": 365,
      "ä¸º": 366,
      "ä¸Ĭ": 367,
      "åĩº": 368,
      "éĺ": 369,
      "çº": 370,
      "çĻ": 371,
      "èµ": 372,
      "ä»ĸ": 373,
      "é«": 374,
      "Â·": 375,
      "æ´": 376,
      "æ¯": 377,
      "åĵ": 378,
      "å»": 379,
      "è¡Į": 380,
      "ç´": 381,
      "åħ¶": 382,
      "æİ": 383,
      "ä¾": 384,
      "è¨": 385,
      "æĽ": 386,
      "é¦": 387,
      "éĸ": 388,
      "çķ": 389,
      "åħ¬": 390,
      "çĶŁ": 391,
      "åİ": 392,
      "çĪ": 393,
      "åĭ": 394,
      "åĳ": 395,
      "éĥ¨": 396,
      "ç¬": 397,
      "èģ": 398,
      "è¦": 399,
      "åĲį": 400,
      "çī¹": 401,
      "è¥": 402,
      "ä¿": 403,
      "æŀ": 404,
      "ä¸»": 405,
      "ä½ľ": 406,
      "æĬ": 407,
      "ç¨": 408,
      "æĢ": 409,
      "è¥¿": 410,
      "çİ": 411,
      "éļ": 412,
      "è§": 413,
      "ç¬¬": 414,
      "ç©": 415,
      "ä¸į": 416,
      "ä½į": 417,
      "å®¶": 418,
      "äºİ": 419,
      "ãĢĬ": 420,
      "ãĢĭ": 421,
      "éķ": 422,
      "ç¾İ": 423,
      "åŃ¦": 424,
      "æ¸": 425,
      "åĪĨ": 426,
      "çµ": 427,
      "æ³ķ": 428,
      "æ°ĳ": 429,
      "å·ŀ": 430,
      "èĢĮ": 431,
      "æĻĤ": 432,
      "è·": 433,
      "è¢": 434,
      "å§": 435,
      "èĥ": 436,
      "çľ": 437,
      "è½": 438,
      "åĪ©": 439,
      "çĶ¨": 440,
      "åĬł": 441,
      "èŃ": 442,
      "å¿": 443,
      "åįĢ": 444,
      "æ¨": 445,
      "ä»»": 446,
      "æ¬": 447,
      "åħĭ": 448,
      "è©": 449,
      "æĸ¹": 450,
      "åĪ°": 451,
      "èĭ": 452,
      "ç½": 453,
      "æľ¬": 454,
      "æľĥ": 455,
      "åł": 456,
      "æĮ": 457,
      "è¢«": 458,
      "é»": 459,
      "åŃĲ": 460,
      "201": 461,
      "ä¸ĭ": 462,
      "æĶ¿": 463,
      "ä¹ĭ": 464,
      "åıĬ": 465,
      "å¤ļ": 466,
      "é«ĺ": 467,
      "å£": 468,
      "ç±": 469,
      "éĹ": 470,
      "èī": 471,
      "çĶ±": 472,
      "é¢": 473,
      "æ±": 474,
      "è¾": 475,
      "å¾·": 476,
      "å¹³": 477,
      "çŃ": 478,
      "å¾Į": 479,
      "åĲĮ": 480,
      "æµ·": 481,
      "è³": 482,
      "èĲ": 483,
      "éł": 484,
      "å¸Ĥ": 485,
      "çĲĨ": 486,
      "æĸ°": 487,
      "éĿ¢": 488,
      "åįĹ": 489,
      "åı¯": 490,
      "åŃ¸": 491,
      "å·¥": 492,
      "ç¶": 493,
      "èĩª": 494,
      "æĭī": 495,
      "Ġ(": 496,
      "éĩĮ": 497,
      "åı£": 498,
      "åĢĭ": 499,
      "åº¦": 500,
      "çĪ¾": 501,
      "æĸĩ": 502,
      "èĪĩ": 503,
      "ç¤": 504,
      "æĵ": 505,
      "é¡": 506,
      "è£": 507,
      "äºĭ": 508,
      "èª": 509,
      "å°Ķ": 510,
      "åĿ": 511,
      "æ¼": 512,
      "è»": 513,
      "è·¯": 514,
      "å»º": 515,
      "ç«Ļ": 516,
      "äºŀ": 517,
      "å¾Ĺ": 518,
      "èİ": 519,
      "èĩ³": 520,
      "å°¼": 521,
      "ãĢĮ": 522,
      "ãĢį": 523,
      "ç¦": 524,
      "è¡¨": 525,
      "ç¸": 526,
      "åĲĪ": 527,
      "æľĢ": 528,
      "çı": 529,
      "ä¸ī": 530,
      "è´": 531,
      "ä¸ª": 532,
      "æı": 533,
      "éĻ¢": 534,
      "çĻ¼": 535,
      "æľŁ": 536,
      "ä¼ļ": 537,
      "åīį": 538,
      "ç§ĳ": 539,
      "åĽł": 540,
      "éŁ": 541,
      "æŃ¤": 542,
      "éĢļ": 543,
      "æł¼": 544,
      "çī©": 545,
      "ï¼īï¼Į": 546,
      "çŁ": 547,
      "ç«ĭ": 548,
      "æĦ": 549,
      "éģĵ": 550,
      "äºĮ": 551,
      "âĢľ": 552,
      "éĤ": 553,
      "âĢĿ": 554,
      "æīĢ": 555,
      "åĲİ": 556,
      "ç¥": 557,
      "åĮĹ": 558,
      "åħ¥": 559,
      "ä»£": 560,
      "æĹ¶": 561,
      "ç±³": 562,
      "æŁ": 563,
      "å¸ĥ": 564,
      "çģ": 565,
      "ä¸ĸ": 566,
      "èĻ": 567,
      "å±±": 568,
      "èĭ±": 569,
      "æ¬¡": 570,
      "æĢ§": 571,
      "èĥ½": 572,
      "ä¹Ł": 573,
      "èĬ": 574,
      "ä¸¦": 575,
      "çŃī": 576,
      "è¦ģ": 577,
      "åĮĸ": 578,
      "å®ļ": 579,
      "éĺ¿": 580,
      "èĤ": 581,
      "æ¡": 582,
      "ç·": 583,
      "èĢħ": 584,
      "åĸ": 585,
      "åħ±": 586,
      "å°ı": 587,
      "è¶": 588,
      "åı°": 589,
      "è²": 590,
      "çĲĥ": 591,
      "åħ¨": 592,
      "å¤ĸ": 593,
      "æ²»": 594,
      "åģ": 595,
      "çľģ": 596,
      "00": 597,
      "è©²": 598,
      "çį": 599,
      "ç®": 600,
      "ä¸İ": 601,
      "ï¼ļ": 602,
      "å¼ı": 603,
      "æ¼Ķ": 604,
      "å®ī": 605,
      "äººåı£": 606,
      "æĥ": 607,
      "åĮº": 608,
      "å¦": 609,
      "åıĳ": 610,
      "é©": 611,
      "ç³": 612,
      "çĦ": 613,
      "å£«": 614,
      "å¡": 615,
      "çł": 616,
      "ç¾İåľĭ": 617,
      "åĵ¡": 618,
      "ä½¿": 619,
      "èı": 620,
      "åı¸": 621,
      "æ¥": 622,
      "åŁº": 623,
      "éĸĭ": 624,
      "éĩį": 625,
      "æķĻ": 626,
      "åĪ¶": 627,
      "10": 628,
      "åįģ": 629,
      "åĭķ": 630,
      "çĽ®": 631,
      "å¤©": 632,
      "å½±": 633,
      "æ®": 634,
      "åħĥ": 635,
      "æ¯Ķ": 636,
      "åĪĹ": 637,
      "äºļ": 638,
      "éģ¸": 639,
      "æĺİ": 640,
      "åķ": 641,
      "èµ·": 642,
      "æģ": 643,
      "ä¾Ĩ": 644,
      "ä½Ĩ": 645,
      "å°ĩ": 646,
      "å¿ĥ": 647,
      "æ¸¯": 648,
      "çļĦä¸Ģ": 649,
      "æŃ£": 650,
      "æ£": 651,
      "é¦ĸ": 652,
      "å°į": 653,
      "è¼": 654,
      "è½¦": 655,
      "éĸĵ": 656,
      "æ©": 657,
      "å¥³": 658,
      "åĬĽ": 659,
      "åĤ": 660,
      "åİŁ": 661,
      "2019": 662,
      "åĳĺ": 663,
      "12": 664,
      "åĬ¨": 665,
      "ç³»": 666,
      "å¢": 667,
      "æĪĸ": 668,
      "éĽĨ": 669,
      "æº": 670,
      "éĩĳ": 671,
      "å¼Ģ": 672,
      "çķ¶": 673,
      "æıĲ": 674,
      "ç¦ı": 675,
      "æŀĹ": 676,
      "éķ·": 677,
      "ç¨ĭ": 678,
      "éĽ»": 679,
      "ï¼Ľ": 680,
      "èī²": 681,
      "éķ¿": 682,
      "æĻ®": 683,
      "äº¤": 684,
      "éĥ½": 685,
      "é«Ķ": 686,
      "æİ¥": 687,
      "è«": 688,
      "er": 689,
      "çĽ¸": 690,
      "æĴ": 691,
      "æĮĩ": 692,
      "å·´": 693,
      "æ¶": 694,
      "èĳ": 695,
      "é£": 696,
      "åºľ": 697,
      "æ°´": 698,
      "åĨĽ": 699,
      "å¹¶": 700,
      "èį": 701,
      "æį": 702,
      "çº¿": 703,
      "èµĽ": 704,
      "åĽĽ": 705,
      "åŁİ": 706,
      "åħ§": 707,
      "èĹ": 708,
      "æīĭ": 709,
      "200": 710,
      "ï¼Īï¼ī": 711,
      "å¨": 712,
      "éľ": 713,
      "åĶ": 714,
      "åŀ": 715,
      "in": 716,
      "æ¢": 717,
      "ç¸£": 718,
      "èĺ": 719,
      "è»į": 720,
      "çĶµ": 721,
      "æķ¸": 722,
      "éĿŀ": 723,
      "æĿ¥": 724,
      "éĵ": 725,
      "å¸¸": 726,
      "18": 727,
      "éħ": 728,
      "åĲĳ": 729,
      "çİĭ": 730,
      "å¯¹": 731,
      "è°": 732,
      "11": 733,
      "ï¼īãĢĤ": 734,
      "è¿Ļ": 735,
      "åĮħ": 736,
      "æ·": 737,
      "åıĹ": 738,
      "é¦Ļ": 739,
      "ç¶ĵ": 740,
      "ç¤º": 741,
      "éŁ³": 742,
      "éģİ": 743,
      "éĩı": 744,
      "ä¸ľ": 745,
      "åį¡": 746,
      "ä¸ŃåĽ½": 747,
      "an": 748,
      "on": 749,
      "éİ": 750,
      "åŀĭ": 751,
      "èŃ°": 752,
      "å²": 753,
      "éĢ²": 754,
      "æĽ¾": 755,
      "äºŀå·ŀ": 756,
      "é¦¬": 757,
      "è¿Ľ": 758,
      "çı¾": 759,
      "ç¿": 760,
      "éĢĻ": 761,
      "èŃ¦": 762,
      "åı²": 763,
      "åł´": 764,
      "å¦Ĥ": 765,
      "æĶ¹": 766,
      "åĨħ": 767,
      "ä¸ļ": 768,
      "å§Ķ": 769,
      "çģ£": 770,
      "ç¾ħ": 771,
      "æľº": 772,
      "å§ĭ": 773,
      "æľª": 774,
      "æĦı": 775,
      "è±": 776,
      "çĵ": 777,
      "ç¯": 778,
      "åį³": 779,
      "æŁ¥": 780,
      "æł¡": 781,
      "èº": 782,
      "ä½ĵ": 783,
      "å½¢": 784,
      "å¤«": 785,
      "è¯¥": 786,
      "ç½Ĺ": 787,
      "çłĶ": 788,
      "å®ĺ": 789,
      "éİ®": 790,
      "å±Ģ": 791,
      "ä»¶": 792,
      "è¿Ĳ": 793,
      "åħ¬åı¸": 794,
      "ç¤¾": 795,
      "çŁ¥": 796,
      "æ´»": 797,
      "è³½": 798,
      "ç©į": 799,
      "é©¬": 800,
      "or": 801,
      "å¥¹": 802,
      "éĹ´": 803,
      "çķĮ": 804,
      "ç®¡": 805,
      "éģĶ": 806,
      "åıį": 807,
      "èĸ": 808,
      "ä¿Ŀ": 809,
      "æ¥Ń": 810,
      "ç·ļ": 811,
      "é¢¨": 812,
      "ç¨®": 813,
      "æĮģ": 814,
      "é¦Ļæ¸¯": 815,
      "åĥ": 816,
      "æ¯ı": 817,
      "è¨Ī": 818,
      "æĥħ": 819,
      "èĴ": 820,
      "199": 821,
      "åı¯ä»¥": 822,
      "æĿ±": 823,
      "çĳ": 824,
      "è®¾": 825,
      "éĺŁ": 826,
      "è»Ĭ": 827,
      "èº«": 828,
      "æĹı": 829,
      "åĵģ": 830,
      "æĶ¿åºľ": 831,
      "è¿ĩ": 832,
      "ç©º": 833,
      "çĨ": 834,
      "æ©Ł": 835,
      "çĦ¶": 836,
      "äºĶ": 837,
      "éĿ¢ç©į": 838,
      "çĽ´": 839,
      "å·²": 840,
      "åº§": 841,
      "èģĶ": 842,
      "202": 843,
      "åĽŀ": 844,
      "çĹ": 845,
      "éļĬ": 846,
      "èı¯": 847,
      "çĻ½": 848,
      "å°±": 849,
      "en": 850,
      "ä¼Ĭ": 851,
      "å¥¥": 852,
      "èĻŁ": 853,
      "èĮ": 854,
      "é¾": 855,
      "æ¨Ļ": 856,
      "ç©¶": 857,
      "èĪī": 858,
      "æĴŃ": 859,
      "ç»ı": 860,
      "æ²³": 861,
      "åĿĩ": 862,
      "æ»": 863,
      "åĻ": 864,
      "æ´²": 865,
      "ç¬¬ä¸Ģ": 866,
      "ç§°": 867,
      "çĭ": 868,
      "æķ°": 869,
      "çĥ": 870,
      "å¸¶": 871,
      "ç¼": 872,
      "å¤ª": 873,
      "æĽ²": 874,
      "çłĶç©¶": 875,
      "è¨Ń": 876,
      "èģ¯": 877,
      "ä½įæĸ¼": 878,
      "çıŃ": 879,
      "çīĩ": 880,
      "éŃ": 881,
      "äº¬": 882,
      "æĹ¥æľ¬": 883,
      "æ¡Ī": 884,
      "æĪ°": 885,
      "å°Ĩ": 886,
      "éĢł": 887,
      "åľ°çļĦ": 888,
      "æ°£": 889,
      "å³": 890,
      "æļ": 891,
      "çİ°": 892,
      "ç¸½": 893,
      "å±ķ": 894,
      "æĶ¯": 895,
      "æł¹": 896,
      "ç¹": 897,
      "éº": 898,
      "åħ¶ä¸Ń": 899,
      "æĽ´": 900,
      "ä½¿çĶ¨": 901,
      "æ¨Ĥ": 902,
      "å±¬": 903,
      "åŃ£": 904,
      "æĭ¬": 905,
      "ç¨±": 906,
      "åľº": 907,
      "åıĸ": 908,
      "æĺ¯ä¸Ģ": 909,
      "äºĽ": 910,
      "éĹľ": 911,
      "éĢī": 912,
      "çĵ¦": 913,
      "çĸ": 914,
      "æŃĮ": 915,
      "æīĵ": 916,
      "å½ĵ": 917,
      "æµģ": 918,
      "åŃĹ": 919,
      "ä¿¡": 920,
      "ar": 921,
      "åĦ": 922,
      "èİ·": 923,
      "åıĥ": 924,
      "ç»´": 925,
      "åĮħæĭ¬": 926,
      "ç²": 927,
      "ä¸Ńå¿ĥ": 928,
      "èĺŃ": 929,
      "éİ®åįĢ": 930,
      "èĸ©": 931,
      "æĩ": 932,
      "åķĨ": 933,
      "è§£": 934,
      "åħ©": 935,
      "åĬłåĪ©": 936,
      "åįİ": 937,
      "çį²": 938,
      "åħ°": 939,
      "éĮ": 940,
      "198": 941,
      "æ®µ": 942,
      "æħ": 943,
      "åħ³": 944,
      "æ³¢": 945,
      "æĶ¶": 946,
      "èĦ": 947,
      "åı¤": 948,
      "ç»Ħ": 949,
      "å°ĳ": 950,
      "åıĤ": 951,
      "æĢ»": 952,
      "æ§": 953,
      "å¤§åŃ¦": 954,
      "æĿİ": 955,
      "çĶ·": 956,
      "åħī": 957,
      "30": 958,
      "åĳ½": 959,
      "æ±Ł": 960,
      "è§Ĵ": 961,
      "çµ±": 962,
      "æĪĺ": 963,
      "ç¢": 964,
      "åĭĴ": 965,
      "ç´Ħ": 966,
      "çĿ": 967,
      "èĬ±": 968,
      "éĥ¨åĪĨ": 969,
      "èĩº": 970,
      "æľĿ": 971,
      "å®ĥ": 972,
      "é»ŀ": 973,
      "åįĥ": 974,
      "la": 975,
      "15": 976,
      "ä¸¤": 977,
      "16": 978,
      "å¯Ĩ": 979,
      "å¡Ķ": 980,
      "éĢŁ": 981,
      "ç¶Ń": 982,
      "ä»¥åıĬ": 983,
      "åĪĿ": 984,
      "å¨ģ": 985,
      "ç¦ıå°¼": 986,
      "åĬłåĪ©ç¦ıå°¼": 987,
      "éĽ·": 988,
      "æ£®": 989,
      "æĵļ": 990,
      "åĵĪ": 991,
      "åĲĦ": 992,
      "éĸĢ": 993,
      "é¤": 994,
      "æĶ¾": 995,
      "è©²åľ°çļĦ": 996,
      "åįĩ": 997,
      "äººæ°ĳ": 998,
      "è¿ĳ": 999,
      "çµĦ": 1000,
      "åĬłåĪ©ç¦ıå°¼äºŀå·ŀ": 1001,
      "è®¡": 1002,
      "æŀľ": 1003,
      "æ¸ħ": 1004,
      "å¸Ń": 1005,
      "åł±": 1006,
      "éĵģ": 1007,
      "es": 1008,
      "åı·": 1009,
      "æ¾": 1010,
      "ç§į": 1011,
      "æ²Ļ": 1012,
      "åĬĩ": 1013,
      "åĢĳ": 1014,
      "æĺŁ": 1015,
      "çĦ¡": 1016,
      "èĳĹ": 1017,
      "æ¿": 1018,
      "17": 1019,
      "æ¨¡": 1020,
      "åĻ¨": 1021,
      "åİ»": 1022,
      "éĦ": 1023,
      "èħ": 1024,
      "åįļ": 1025,
      "å®Į": 1026,
      "çīĪ": 1027,
      "åľ°çĲĨ": 1028,
      "çĹħ": 1029,
      "åľĺ": 1030,
      "åħ¶ä»ĸ": 1031,
      "åīĩ": 1032,
      "æ¹": 1033,
      "åľ°åįĢ": 1034,
      "å®£": 1035,
      "èĤ²": 1036,
      "è¾¾": 1037,
      "æĭĶ": 1038,
      "çµĲ": 1039,
      "åħĪ": 1040,
      "2018": 1041,
      "æ¦": 1042,
      "ç¬¬äºĮ": 1043,
      "åŁĥ": 1044,
      "è¶³": 1045,
      "ç¥¨": 1046,
      "æŃ¦": 1047,
      "çĩ": 1048,
      "æĬ¥": 1049,
      "èİ«": 1050,
      "è±¡": 1051,
      "æĶ¿æ²»": 1052,
      "åī¯": 1053,
      "å¡ŀ": 1054,
      "ç¥ŀ": 1055,
      "åĲī": 1056,
      "åį°": 1057,
      "éģĭ": 1058,
      "èĲ¨": 1059,
      "çŁ³": 1060,
      "æ´¾": 1061,
      "åĳĬ": 1062,
      "çĨ±": 1063,
      "æĬķ": 1064,
      "ï¼Īï¼īï¼Į": 1065,
      "ä¾Ľ": 1066,
      "æĬĢ": 1067,
      "å·¥ä½ľ": 1068,
      "13": 1069,
      "åĽ¢": 1070,
      "ä¸ĸçķĮ": 1071,
      "åĸ®": 1072,
      "å¹³æĸ¹": 1073,
      "ä¸Ķ": 1074,
      "å¾Ģ": 1075,
      "åŁŁ": 1076,
      "åħŃ": 1077,
      "è¦ĸ": 1078,
      "å¾ŀ": 1079,
      "å¯¦": 1080,
      "ic": 1081,
      "è¡¨ç¤º": 1082,
      "äº¦": 1083,
      "çĬ": 1084,
      "ä»¬": 1085,
      "åĬ¡": 1086,
      "ä¸»è¦ģ": 1087,
      "è£½": 1088,
      "é«ĺåº¦": 1089,
      "æĸ½": 1090,
      "æ±Ĥ": 1091,
      "ç»Ł": 1092,
      "ä½ı": 1093,
      "ä»½": 1094,
      "ä¹Ĳ": 1095,
      "çº§": 1096,
      "ä¾ĭ": 1097,
      "æµ·æĭĶ": 1098,
      "å°Ī": 1099,
      "åĬŁ": 1100,
      "al": 1101,
      "ä¹¦": 1102,
      "åĭĻ": 1103,
      "é½": 1104,
      "æ´Ľ": 1105,
      "14": 1106,
      "ä¼¯": 1107,
      "ä»¤": 1108,
      "åĨį": 1109,
      "è§Ĩ": 1110,
      "ä»İ": 1111,
      "å°º": 1112,
      "åİĨ": 1113,
      "æİ¨": 1114,
      "åİ¿": 1115,
      "å§Ĩ": 1116,
      "èªį": 1117,
      "æľį": 1118,
      "å¤§åŃ¸": 1119,
      "å¸Į": 1120,
      "åıĪ": 1121,
      "ä¸Ģä¸ª": 1122,
      "ä¿®": 1123,
      "å¼ķ": 1124,
      "å®¢": 1125,
      "197": 1126,
      "åĳ¨": 1127,
      "åħļ": 1128,
      "å¥§": 1129,
      "è®®": 1130,
      "194": 1131,
      "195": 1132,
      "ç¾İåĽ½": 1133,
      "éģĬ": 1134,
      "é»¨": 1135,
      "æİĴ": 1136,
      "èĭı": 1137,
      "çĶ¢": 1138,
      "éķĩ": 1139,
      "å®ŀ": 1140,
      "å¹³åĿĩ": 1141,
      "æµ·æĭĶé«ĺåº¦": 1142,
      "åıª": 1143,
      "åºĶ": 1144,
      "é»ĳ": 1145,
      "ä½İ": 1146,
      "å¸Ŀ": 1147,
      "éĲ": 1148,
      "æĿĳ": 1149,
      "æĩī": 1150,
      "åįĪ": 1151,
      "éĻ¤": 1152,
      "å±ŀ": 1153,
      "æ³°": 1154,
      "åħ«": 1155,
      "éĴ": 1156,
      "åħµ": 1157,
      "å°İ": 1158,
      "è¯Ń": 1159,
      "çº¦": 1160,
      "ç»ĵ": 1161,
      "éĻ¸": 1162,
      "äº§": 1163,
      "è³ĩ": 1164,
      "2020": 1165,
      "æŃ»": 1166,
      "å±ħ": 1167,
      "ç¾©": 1168,
      "at": 1169,
      "å¸Ī": 1170,
      "éĿ¢ç©įçĤº": 1171,
      "èĬĤ": 1172,
      "å¯Ł": 1173,
      "éĺ²": 1174,
      "is": 1175,
      "åħ·": 1176,
      "æºĲ": 1177,
      "åľŁ": 1178,
      "æį®": 1179,
      "ç½®": 1180,
      "ç¡": 1181,
      "196": 1182,
      "åĶ±": 1183,
      "å¥ĩ": 1184,
      "æķħ": 1185,
      "åı¯èĥ½": 1186,
      "å¢ĥ": 1187,
      "æĪ¿": 1188,
      "ï¼Īï¼Į": 1189,
      "çµ¦": 1190,
      "ä½ķ": 1191,
      "å¯¼": 1192,
      "çļĦä¸ĢåĢĭ": 1193,
      "åĤ³": 1194,
      "åŃĺ": 1195,
      "åľĴ": 1196,
      "å®¤": 1197,
      "çİĩ": 1198,
      "è£Ķ": 1199,
      "è¬": 1200,
      "ä¹ī": 1201,
      "åĽ½å®¶": 1202,
      "çª": 1203,
      "èĴĤ": 1204,
      "èĲ¥": 1205,
      "el": 1206,
      "åľĸ": 1207,
      "éĿĴ": 1208,
      "åĬ©": 1209,
      "è¶ħ": 1210,
      "éĨ": 1211,
      "æģ©": 1212,
      "å·¥ç¨ĭ": 1213,
      "çįİ": 1214,
      "ä»Ĭ": 1215,
      "å¥½": 1216,
      "éĶ": 1217,
      "ç´į": 1218,
      "éĻĲ": 1219,
      "çĻ»": 1220,
      "25": 1221,
      "èĲ¬": 1222,
      "ĠS": 1223,
      "è¨Ģ": 1224,
      "èĩ´": 1225,
      "åĺ": 1226,
      "å¸«": 1227,
      "åŃ¦éĻ¢": 1228,
      "æĪĳ": 1229,
      "èİ·å¾Ĺ": 1230,
      "åı¦": 1231,
      "ä½Ľ": 1232,
      "ç´ļ": 1233,
      "åĸ¬": 1234,
      "æĹ©": 1235,
      "ä¸ĢåĢĭ": 1236,
      "é¡ŀ": 1237,
      "å©": 1238,
      "çīĻ": 1239,
      "æĸ¯çī¹": 1240,
      "éĢ£": 1241,
      "ä»£è¡¨": 1242,
      "éĻį": 1243,
      "ä½įäºİ": 1244,
      "æĹł": 1245,
      "èĻķ": 1246,
      "æĻļ": 1247,
      "å¼µ": 1248,
      "éļĽ": 1249,
      "è«ĸ": 1250,
      "å·±": 1251,
      "çķ«": 1252,
      "ä¿Ħ": 1253,
      "ä¹Ŀ": 1254,
      "éª": 1255,
      "å¾ĭ": 1256,
      "æļ´": 1257,
      "åº·": 1258,
      "åľĭå®¶": 1259,
      "æľ¯": 1260,
      "é¢Ĩ": 1261,
      "ĠC": 1262,
      "è¿ª": 1263,
      "èĭ±å°º": 1264,
      "é¾į": 1265,
      "çħ": 1266,
      "çĨ±å¸¶": 1267,
      "æĲ": 1268,
      "åĨł": 1269,
      "çļĨ": 1270,
      "æ´ĭ": 1271,
      "æĸĩåĮĸ": 1272,
      "å¹¿": 1273,
      "åģľ": 1274,
      "ä¸ĥ": 1275,
      "ä¸ĵ": 1276,
      "ä¸ģ": 1277,
      "çļĦåº§": 1278,
      "èĢĥ": 1279,
      "æĪĲç«ĭ": 1280,
      "åĽłæŃ¤": 1281,
      "å¢ŀ": 1282,
      "çĴ": 1283,
      "çĳŀ": 1284,
      "èĵ": 1285,
      "ç½ĳ": 1286,
      "æĦŁ": 1287,
      "ch": 1288,
      "èªŀ": 1289,
      "ä»ĸçļĦ": 1290,
      "æ¨ĻçĤº": 1291,
      "ç´¢": 1292,
      "ä½įæĸ¼ç¾İåľĭ": 1293,
      "è®¤": 1294,
      "ç¼ĸ": 1295,
      "éĬ": 1296,
      "æľĹ": 1297,
      "åįķ": 1298,
      "èªª": 1299,
      "åĿ¦": 1300,
      "çģ«": 1301,
      "çļĦåº§æ¨ĻçĤº": 1302,
      "ä¸Ńåľĭ": 1303,
      "æŃ²": 1304,
      "çĤ¹": 1305,
      "å¤®": 1306,
      "æ¶Ī": 1307,
      "le": 1308,
      "å¤Ħ": 1309,
      "ç¾¤": 1310,
      "èī¦": 1311,
      "éľĢ": 1312,
      "æŃ·": 1313,
      "æķ´": 1314,
      "éĸĭå§ĭ": 1315,
      "for": 1316,
      "2010": 1317,
      "é²": 1318,
      "ur": 1319,
      "æ½": 1320,
      "çĶ°": 1321,
      "ç¯Ģ": 1322,
      "æŃ¥": 1323,
      "ç§»": 1324,
      "å®¹": 1325,
      "ç®Ĺ": 1326,
      "ä¸¾": 1327,
      "æĵĬ": 1328,
      "åīµ": 1329,
      "æ¸¸": 1330,
      "çĻ¾": 1331,
      "ãĢįï¼Į": 1332,
      "èµĦ": 1333,
      "æ¯į": 1334,
      "ç±»": 1335,
      "è¡Ĺ": 1336,
      "æģ¯": 1337,
      "éłŃ": 1338,
      "èĹĿ": 1339,
      "åįĥç±³": 1340,
      "æİ§": 1341,
      "çľŁ": 1342,
      "çº³": 1343,
      "è¶Ĭ": 1344,
      "äºĭä»¶": 1345,
      "èĲ½": 1346,
      "éĤ£": 1347,
      "æĺĵ": 1348,
      "å¤ı": 1349,
      "çĶ²": 1350,
      "ä¸Ńå¤®": 1351,
      "åįĬ": 1352,
      "ç¾½": 1353,
      "å°ĩåħ¶": 1354,
      "24": 1355,
      "èĩªå·±": 1356,
      "é¡¹": 1357,
      "å¤±": 1358,
      "èģ·": 1359,
      "æĦĽ": 1360,
      "å»£": 1361,
      "è§Ģ": 1362,
      "å³¶": 1363,
      "éħį": 1364,
      "mu": 1365,
      "æĺ¯ä½įæĸ¼ç¾İåľĭ": 1366,
      "åĪ¥": 1367,
      "ç¸£çļĦä¸ĢåĢĭ": 1368,
      "it": 1369,
      "ä¸ŃçļĦ": 1370,
      "çºª": 1371,
      "æİĪ": 1372,
      "å¹³æĸ¹åįĥç±³": 1373,
      "åĢ«": 1374,
      "æĳ": 1375,
      "æĵĶ": 1376,
      "æ¯Ľ": 1377,
      "åħ±åĴĮ": 1378,
      "æ¾³": 1379,
      "åĸ¬æ²»": 1380,
      "å¼Ĺ": 1381,
      "è¦ª": 1382,
      "è¿Ľè¡Į": 1383,
      "æīĺ": 1384,
      "ç´ł": 1385,
      "çľ¾": 1386,
      "å¿Ĺ": 1387,
      "22": 1388,
      "è¿ĺ": 1389,
      "è®°": 1390,
      "è©ķ": 1391,
      "æĪĲçĤº": 1392,
      "æī¹": 1393,
      "çºĮ": 1394,
      "éĤĬ": 1395,
      "å¼ł": 1396,
      "éĲµ": 1397,
      "æ±º": 1398,
      "è¾¦": 1399,
      "èĽ": 1400,
      "çķĻ": 1401,
      "åı°çģ£": 1402,
      "æĭħ": 1403,
      "èİ±": 1404,
      "æĽ¼": 1405,
      "é¡Į": 1406,
      "âĢĿãĢĤ": 1407,
      "éĢ²è¡Į": 1408,
      "èĢģ": 1409,
      "ç«ł": 1410,
      "æĬĹ": 1411,
      "æŃ£å¼ı": 1412,
      "çį²å¾Ĺ": 1413,
      "ä¾¿": 1414,
      "å®Ĺ": 1415,
      "ç´Ģ": 1416,
      "èĩºçģ£": 1417,
      "åł¡": 1418,
      "ä¸¹": 1419,
      "ä¸ĩ": 1420,
      "å°Ħ": 1421,
      "å¾Ī": 1422,
      "æŀĦ": 1423,
      "éłĺ": 1424,
      "æĻ®æŁ¥": 1425,
      "åĥı": 1426,
      "åī§": 1427,
      "èĥŀ": 1428,
      "æĽ¸": 1429,
      "äººåı£æĻ®æŁ¥": 1430,
      "æľ¨": 1431,
      "è¿°": 1432,
      "å¼·": 1433,
      "æĿĥ": 1434,
      "è¯´": 1435,
      "è½ī": 1436,
      "è£Ŀ": 1437,
      "éĽ»å½±": 1438,
      "he": 1439,
      "æĤ": 1440,
      "åĪ«": 1441,
      "æıĲä¾Ľ": 1442,
      "åĸ¬æ²»äºŀå·ŀ": 1443,
      "ç°": 1444,
      "æŀ¶": 1445,
      "èĤ¯": 1446,
      "ç¬¬ä¸ī": 1447,
      "æīĢæľī": 1448,
      "è°ĥ": 1449,
      "am": 1450,
      "éĻ³": 1451,
      "mula": 1452,
      "çĽŁ": 1453,
      "éĹ¨": 1454,
      "æ¹ĸ": 1455,
      "åħ¸": 1456,
      "èĪª": 1457,
      "formula": 1458,
      "ãĢĭï¼Į": 1459,
      "23": 1460,
      "æł¹æĵļ": 1461,
      "il": 1462,
      "æ·±": 1463,
      "åĪ¤": 1464,
      "å»ºåĪ¶": 1465,
      "æµ·æĭĶé«ĺåº¦çĤº": 1466,
      "åĨ³": 1467,
      "et": 1468,
      "ä¾Ŀ": 1469,
      "éĮĦ": 1470,
      "éłĵ": 1471,
      "è©²åľ°çļĦå¹³åĿĩ": 1472,
      "è©²åľ°çļĦå¹³åĿĩæµ·æĭĶé«ĺåº¦çĤº": 1473,
      "ro": 1474,
      "å´": 1475,
      "èĢĮè©²åľ°çļĦå¹³åĿĩæµ·æĭĶé«ĺåº¦çĤº": 1476,
      "ç·¨": 1477,
      "éĻħ": 1478,
      "æłĩ": 1479,
      "æ¤": 1480,
      "ä¼ł": 1481,
      "ĠA": 1482,
      "èĲĬ": 1483,
      "ãĢįãĢĤ": 1484,
      "ĠM": 1485,
      "åĩ»": 1486,
      "å¼Ģå§ĭ": 1487,
      "èª¿": 1488,
      "éŁ³æ¨Ĥ": 1489,
      "åľĭéļĽ": 1490,
      "ä¸įåĲĮ": 1491,
      "è®Ĭ": 1492,
      "è¦ĭ": 1493,
      "åİĨåı²": 1494,
      "æŃ¢": 1495,
      "æ²ĥ": 1496,
      "çļĩ": 1497,
      "ä»į": 1498,
      "è¡ĵ": 1499,
      "åĮĹäº¬": 1500,
      "æ§ĭ": 1501,
      "çªģ": 1502,
      "âĢĶ": 1503,
      "éĽ¢": 1504,
      "è«¾": 1505,
      "æ°ĳä¸»": 1506,
      "è¨ĺ": 1507,
      "è§Ħ": 1508,
      "å¿µ": 1509,
      "æĻ¯": 1510,
      "21": 1511,
      "æ¢Ŀ": 1512,
      "193": 1513,
      "ä¹ĭä¸Ģ": 1514,
      "è½¦ç«Ļ": 1515,
      "åĽ¾": 1516,
      "æ²Ĵ": 1517,
      "èĴĻ": 1518,
      "åľ£": 1519,
      "æĹħ": 1520,
      "ï¼īãĢģ": 1521,
      "æĭħä»»": 1522,
      "st": 1523,
      "éļ¨": 1524,
      "å¹´çļĦ": 1525,
      "28": 1526,
      "å²Ľ": 1527,
      "ä½ľåĵģ": 1528,
      "æ¬Ĭ": 1529,
      "å§Ķåĳĺ": 1530,
      "ä»ĸåĢĳ": 1531,
      "2017": 1532,
      "è¼¯": 1533,
      "é¤¨": 1534,
      "éĵģè·¯": 1535,
      "åıĭ": 1536,
      "çĪ¶": 1537,
      "éĻĦ": 1538,
      "æĪĲä¸º": 1539,
      "åķı": 1540,
      "åŁİå¸Ĥ": 1541,
      "æĶ¯æĮģ": 1542,
      "è¿ŀ": 1543,
      "æ¢ħ": 1544,
      "å·Ŀ": 1545,
      "è¨±": 1546,
      "çĶŁå¹³": 1547,
      "éĤĦ": 1548,
      "æĿ¡": 1549,
      "èı²": 1550,
      "è¿ĲåĬ¨": 1551,
      "éĨ«": 1552,
      "èī¾": 1553,
      "éĽĻ": 1554,
      "æł¼çĤº": 1555,
      "æĥ³": 1556,
      "èĺĩ": 1557,
      "æľªçŁ¥": 1558,
      "æķĪ": 1559,
      "æĵĶä»»": 1560,
      "åª": 1561,
      "éļı": 1562,
      "èįī": 1563,
      "æľ±": 1564,
      "æīį": 1565,
      "å¥³åŃĲ": 1566,
      "èģĮ": 1567,
      "åĪĽ": 1568,
      "æī¿": 1569,
      "åĵ¥": 1570,
      "çĴ°": 1571,
      "åľ°åĮº": 1572,
      "åĨľ": 1573,
      "éĿ©": 1574,
      "éĢļè¿ĩ": 1575,
      "æķĻèĤ²": 1576,
      "åĪĴ": 1577,
      "éŁĵ": 1578,
      "åĺī": 1579,
      "27": 1580,
      "éģ¸èĪī": 1581,
      "åĢ¼": 1582,
      "éĢĢ": 1583,
      "åºĵ": 1584,
      "åºŃ": 1585,
      "è®º": 1586,
      "ĠP": 1587,
      "äº¤éĢļ": 1588,
      "äººæľī": 1589,
      "äºĪ": 1590,
      "çĭĢ": 1591,
      "åĴĮäººåı£": 1592,
      "éĿŀå»ºåĪ¶": 1593,
      "26": 1594,
      "éĿ¢ç©įåĴĮäººåı£": 1595,
      "è©²åľ°çļĦéĿ¢ç©įåĴĮäººåı£": 1596,
      "çļĨæľªçŁ¥": 1597,
      "ç¸£çļĦä¸ĢåĢĭéĿŀå»ºåĪ¶": 1598,
      "è©²åľ°çļĦéĿ¢ç©įåĴĮäººåı£çļĨæľªçŁ¥": 1599,
      "ç¸£çļĦä¸ĢåĢĭéĿŀå»ºåĪ¶åľ°åįĢ": 1600,
      "ä¸ĬçļĦ": 1601,
      "è¥¿çıŃ": 1602,
      "è¥¿çıŃçīĻ": 1603,
      "å£ĵ": 1604,
      "éłħ": 1605,
      "æĪ²": 1606,
      "ç®¡çĲĨ": 1607,
      "èģĸ": 1608,
      "çĿĢ": 1609,
      "ä½³": 1610,
      "åįı": 1611,
      "æµİ": 1612,
      "2015": 1613,
      "è£Ķç¾İåľĭ": 1614,
      "åįĶ": 1615,
      "åĩĨ": 1616,
      "çĩŁ": 1617,
      "å½Ī": 1618,
      "ä¸Ĭæµ·": 1619,
      "æ§į": 1620,
      "ç´°": 1621,
      "é§": 1622,
      "åĬŀ": 1623,
      "è¡Ģ": 1624,
      "èŃ°åĵ¡": 1625,
      "æľŁéĸĵ": 1626,
      "é¦Ĩ": 1627,
      "å·¦": 1628,
      "æ°ı": 1629,
      "éĽĦ": 1630,
      "å®Ī": 1631,
      "èĪ¹": 1632,
      "ç½²": 1633,
      "èªįçĤº": 1634,
      "æĺ¥": 1635,
      "å¸ķ": 1636,
      "ç¶²": 1637,
      "å¹´ä»£": 1638,
      "éŁ¿": 1639,
      "ä»ĸä»¬": 1640,
      "å»¶": 1641,
      "2016": 1642,
      "åĮ»": 1643,
      "ä¼¼": 1644,
      "æĻĤéĸĵ": 1645,
      "æľĢé«ĺ": 1646,
      "é£Ł": 1647,
      "åį°åº¦": 1648,
      "åħ¬éĩĮ": 1649,
      "é»ĥ": 1650,
      "åºķ": 1651,
      "éĽ»è¦ĸ": 1652,
      "é²ģ": 1653,
      "åĬĥ": 1654,
      "çĶŁæ´»": 1655,
      "éĤ¦": 1656,
      "re": 1657,
      "æĶ»": 1658,
      "æĢĿ": 1659,
      "29": 1660,
      "æĸĻ": 1661,
      "èĢ¶": 1662,
      "èģ²": 1663,
      "è½¬": 1664,
      "ç½ª": 1665,
      "è³ª": 1666,
      "çĮ": 1667,
      "éļĨ": 1668,
      "40": 1669,
      "ou": 1670,
      "éģ¸åįĢ": 1671,
      "é¾Ļ": 1672,
      "50": 1673,
      "ä½©": 1674,
      "éĹ®": 1675,
      "çħ§": 1676,
      "æŃĲ": 1677,
      "çļ®": 1678,
      "èĥĮ": 1679,
      "å¿«": 1680,
      "æĹĭ": 1681,
      "æĬĬ": 1682,
      "æ©ĭ": 1683,
      "åĲ«": 1684,
      "çīĮ": 1685,
      "é¢ĺ": 1686,
      "âĢĿï¼Į": 1687,
      "000": 1688,
      "èį£": 1689,
      "æ²Ĵæľī": 1690,
      "åªĴ": 1691,
      "åĲĮæĻĤ": 1692,
      "éłĲ": 1693,
      "åıĤåĬł": 1694,
      "å°Īè¼¯": 1695,
      "åħĴ": 1696,
      "æĹĹ": 1697,
      "ç»Ī": 1698,
      "èĪĪ": 1699,
      "å¹²": 1700,
      "æ²¡": 1701,
      "çľĭ": 1702,
      "åĲĮå¹´": 1703,
      "åĶ®": 1704,
      "äººçļĦ": 1705,
      "åĬ³": 1706,
      "çĽĽ": 1707,
      "åĢĻ": 1708,
      "æł¸": 1709,
      "å®ĮæĪĲ": 1710,
      "æĭį": 1711,
      "ç£": 1712,
      "å±Ĩ": 1713,
      "æĸ¯å·ŀ": 1714,
      "çµĤ": 1715,
      "éŃļ": 1716,
      "å°ļ": 1717,
      "éĽħ": 1718,
      "åĬłåħ¥": 1719,
      "ĠT": 1720,
      "å¤į": 1721,
      "åį«": 1722,
      "å¸¦": 1723,
      "éģŃ": 1724,
      "çĪŃ": 1725,
      "çĶµè§Ĩ": 1726,
      "è°·": 1727,
      "åħ±åĴĮåĽ½": 1728,
      "æĿĢ": 1729,
      "çİ¯": 1730,
      "ol": 1731,
      "æĭ¿": 1732,
      "æµĭ": 1733,
      "çĶ±æĸ¼": 1734,
      "å¥³æĢ§": 1735,
      "2021": 1736,
      "çļĦäºº": 1737,
      "å¤´": 1738,
      "å¯Į": 1739,
      "é½¡": 1740,
      "æ¤į": 1741,
      "ä½ł": 1742,
      "å·¡": 1743,
      "æ³ķåĽ½": 1744,
      "çŃĸ": 1745,
      "èĮĥ": 1746,
      "åıĺ": 1747,
      "åĪĻ": 1748,
      "åłª": 1749,
      "åłĤ": 1750,
      "å¹´èĩ³": 1751,
      "çķ¶æĻĤ": 1752,
      "äº¡": 1753,
      "å¥ĸ": 1754,
      "çĽĳ": 1755,
      "æ³¨": 1756,
      "ä¹ĭå¾Į": 1757,
      "å¤ĩ": 1758,
      "åºı": 1759,
      "æŃĮæĽ²": 1760,
      "äºĨä¸Ģ": 1761,
      "èµ«": 1762,
      "æ´»åĭķ": 1763,
      "å³°": 1764,
      "åıĥèĪĩ": 1765,
      "ä¸»å¸Ń": 1766,
      "è´¨": 1767,
      "è¦ģæ±Ĥ": 1768,
      "åĤĻ": 1769,
      "çĿ£": 1770,
      "åľį": 1771,
      "ä¸ĭåįĪ": 1772,
      "åģĩ": 1773,
      "è²»": 1774,
      "æ¯ĶèµĽ": 1775,
      "èĹı": 1776,
      "åĽŃ": 1777,
      "éĢģ": 1778,
      "ç¦»": 1779,
      "ç¥ĸ": 1780,
      "æĪĲåĬŁ": 1781,
      "éĺ¿èĤ¯": 1782,
      "è²Ŀ": 1783,
      "ç¹¼": 1784,
      "æľĽ": 1785,
      "æĺł": 1786,
      "æ¿Ł": 1787,
      "éĺ¿èĤ¯èī²": 1788,
      "æª": 1789,
      "æ¡¥": 1790,
      "é£Ľ": 1791,
      "å®£å¸ĥ": 1792,
      "éĺ¿èĤ¯èī²å·ŀ": 1793,
      "ç½Ĺæĸ¯": 1794,
      "çĶ·åŃĲ": 1795,
      "é³": 1796,
      "ä¸Ńåįİ": 1797,
      "ç»Ļ": 1798,
      "ion": 1799,
      "æ¯Ĵ": 1800,
      "om": 1801,
      "é¬": 1802,
      "äºī": 1803,
      "åºĹ": 1804,
      "è¯ķ": 1805,
      "åĩºçĶŁ": 1806,
      "è®ĵ": 1807,
      "èĪŀ": 1808,
      "æ¬¾": 1809,
      "æ··": 1810,
      "æ¬§": 1811,
      "åģļ": 1812,
      "ç³»åĪĹ": 1813,
      "ç²¾": 1814,
      "æĨ": 1815,
      "å®³": 1816,
      "è¯º": 1817,
      "éģĭåĭķ": 1818,
      "ç¤¾ä¼ļ": 1819,
      "å¾®": 1820,
      "æĹ¥åľ¨": 1821,
      "ãĢĭãĢĤ": 1822,
      "é»ĺ": 1823,
      "å¸Ĥéķĩ": 1824,
      "åĽ½éĻħ": 1825,
      "æ°£è±¡": 1826,
      "éĦŃ": 1827,
      "ç¿Ĵ": 1828,
      "åĲĪä½ľ": 1829,
      "è¼ĥ": 1830,
      "å®ģ": 1831,
      "ä¹Łæĺ¯": 1832,
      "æ¡ĳ": 1833,
      "é©Ĺ": 1834,
      "ing": 1835,
      "è©¦": 1836,
      "ĠL": 1837,
      "ä¹Į": 1838,
      "æĿŁ": 1839,
      "è¡ĮæĶ¿": 1840,
      "èĭ±åľĭ": 1841,
      "æľīä¸Ģ": 1842,
      "æĪĲåĵ¡": 1843,
      "èŃ·": 1844,
      "åĸľ": 1845,
      "ç³»çµ±": 1846,
      "æķ¸çĤº": 1847,
      "è²¬": 1848,
      "ad": 1849,
      "å¹´é½¡": 1850,
      "è«ĭ": 1851,
      "å¯«": 1852,
      "éŃ¯": 1853,
      "ä»Ģ": 1854,
      "éĻĨ": 1855,
      "éĺ³": 1856,
      "èŃī": 1857,
      "åħ±æľī": 1858,
      "èĸ©æĸ¯å·ŀ": 1859,
      "ä¹ħ": 1860,
      "å¯Ĩåº¦": 1861,
      "çĬ¯": 1862,
      "èĪīè¡Į": 1863,
      "äººçī©": 1864,
      "ç±į": 1865,
      "åı³": 1866,
      "æķ£": 1867,
      "æ¯ķ": 1868,
      "çķ¶åľ°": 1869,
      "åħ·æľī": 1870,
      "ä»ĭ": 1871,
      "éĩĩ": 1872,
      "è®¸": 1873,
      "å£°": 1874,
      "çĶµå½±": 1875,
      "éº¥": 1876,
      "èµ°": 1877,
      "åĽłçĤº": 1878,
      "çį¨": 1879,
      "éĩİ": 1880,
      "æįķ": 1881,
      "å©ļ": 1882,
      "åłªèĸ©æĸ¯å·ŀ": 1883,
      "å°ģ": 1884,
      "å¾©": 1885,
      "å±Ĥ": 1886,
      "æ²¹": 1887,
      "è´¹": 1888,
      "æºĸ": 1889,
      "æ²¡æľī": 1890,
      "åħį": 1891,
      "å¤§åĪ©": 1892,
      "æĬ¤": 1893,
      "çł´": 1894,
      "éľĢè¦ģ": 1895,
      "æ°¸": 1896,
      "ä½ľçĤº": 1897,
      "å§Ķåĵ¡": 1898,
      "ĠB": 1899,
      "åģ¥": 1900,
      "èĳī": 1901,
      "èī¯": 1902,
      "äºĮåįģ": 1903,
      "ä¸Ńä½į": 1904,
      "éĢı": 1905,
      "2014": 1906,
      "æŃ¤å¤ĸ": 1907,
      "è®¤ä¸º": 1908,
      "é¯": 1909,
      "æ¥µ": 1910,
      "åįĩæł¼çĤº": 1911,
      "åı·çº¿": 1912,
      "å§Ķåĳĺä¼ļ": 1913,
      "è¡Ľ": 1914,
      "2022": 1915,
      "é¹": 1916,
      "æľīéĻĲ": 1917,
      "æ°Ķ": 1918,
      "ç§¯": 1919,
      "åĥ¹": 1920,
      "60": 1921,
      "ä¸Ńèı¯": 1922,
      "ä»ĸåľ¨": 1923,
      "éĢļå¸¸": 1924,
      "éĥ¡": 1925,
      "è¥¿äºļ": 1926,
      "ä¸ĭçļĦ": 1927,
      "è¨Ńè¨Ī": 1928,
      "ç´ħ": 1929,
      "çĻ¼è¡Į": 1930,
      "è£Ķç¾İåľĭäººæľī": 1931,
      "å¹´é½¡ä¸Ńä½į": 1932,
      "å¹´é½¡ä¸Ńä½įæķ¸çĤº": 1933,
      "ä½Ī": 1934,
      "çĶ³": 1935,
      "ä¼į": 1936,
      "è¯Ħ": 1937,
      "ãĢĭãĢģ": 1938,
      "åıĹåĪ°": 1939,
      "ä¹ĺ": 1940,
      "èīº": 1941,
      "ç¹Ķ": 1942,
      "od": 1943,
      "un": 1944,
      "±é¢¨": 1945,
      "åĩºçīĪ": 1946,
      "å½±éŁ¿": 1947,
      "ç³»ç»Ł": 1948,
      "æķħäºĭ": 1949,
      "åıĮ": 1950,
      "å½ķ": 1951,
      "ä½ľä¸º": 1952,
      "ä¼Ĺ": 1953,
      "ç»ĩ": 1954,
      "é¢±é¢¨": 1955,
      "åŃ¸éĻ¢": 1956,
      "æĿ¾": 1957,
      "å½¹": 1958,
      "åĲĮæĹ¶": 1959,
      "æº«": 1960,
      "è¦ı": 1961,
      "è²ł": 1962,
      "æĴŃåĩº": 1963,
      "åŃĺåľ¨": 1964,
      "as": 1965,
      "å±Ĭ": 1966,
      "æ¼ĶåĶ±": 1967,
      "éĵ¶": 1968,
      "éģĬæĪ²": 1969,
      "ain": 1970,
      "ãĥ": 1971,
      "èľ": 1972,
      "ç¾İåħĥ": 1973,
      "æĸ¹å¼ı": 1974,
      "åŃ¸æł¡": 1975,
      "èĬĤçĽ®": 1976,
      "æĺ¯ä½įæĸ¼ç¾İåľĭåĬłåĪ©ç¦ıå°¼äºŀå·ŀ": 1977,
      "æľ«": 1978,
      "å¤ľ": 1979,
      "å·®": 1980,
      "åĪĩ": 1981,
      "ç»Ń": 1982,
      "èĭ¥": 1983,
      "é»İ": 1984,
      "åīįå¾Ģ": 1985,
      "èŃ¦æĸ¹": 1986,
      "çĪ±": 1987,
      "æ¦Ĥ": 1988,
      "æĬĢæľ¯": 1989,
      "ed": 1990,
      "æ¨£": 1991,
      "å»ºç«ĭ": 1992,
      "åĸĦ": 1993,
      "è¯ģ": 1994,
      "äºĴ": 1995,
      "çŁŃ": 1996,
      "ä¸ĸçºª": 1997,
      "è®¾è®¡": 1998,
      "çĦ¶èĢĮ": 1999,
      "ri": 2000,
      "åįł": 2001,
      "æĺ¯åľ¨": 2002,
      "æĸ¯åĿ¦": 2003,
      "åĶĲ": 2004,
      "ä¾ĭå¦Ĥ": 2005,
      "ä¸»ä¹ī": 2006,
      "è£ģ": 2007,
      "31": 2008,
      "å¹¾": 2009,
      "é£İ": 2010,
      "è£½ä½ľ": 2011,
      "èĶ": 2012,
      "å¹´ç¾İåľĭ": 2013,
      "2013": 2014,
      "ĠH": 2015,
      "å¼Ł": 2016,
      "å°ĩåħ¶åįĩæł¼çĤº": 2017,
      "åħ¼": 2018,
      "å¤§çļĦ": 2019,
      "å¿ħ": 2020,
      "æ±ī": 2021,
      "è£ħ": 2022,
      "èŃ°æľĥ": 2023,
      "åļ": 2024,
      "æĪĪ": 2025,
      "ç¿°": 2026,
      "ç¾½çĲĥ": 2027,
      "çĶ»": 2028,
      "åĵį": 2029,
      "é¦ĸæ¬¡": 2030,
      "çĥı": 2031,
      "ç°¡": 2032,
      "èŀ": 2033,
      "äº²": 2034,
      "æł·": 2035,
      "éłĤ": 2036,
      "è´Ŀ": 2037,
      "æľŁéĹ´": 2038,
      "åĪĹè½¦": 2039,
      "é¡¹çĽ®": 2040,
      "èĽĭ": 2041,
      "ä¼¦": 2042,
      "ç«¯": 2043,
      "åħ¨åĽ½": 2044,
      "åĦ¿": 2045,
      "çĤºæ¯ı": 2046,
      "æ²¿": 2047,
      "éĿ¢é«Ķ": 2048,
      "æıĲåĩº": 2049,
      "éľĩ": 2050,
      "éħ¸": 2051,
      "èģ¯åĲĪ": 2052,
      "ç»Ħç»ĩ": 2053,
      "è½Ħ": 2054,
      "æ®º": 2055,
      "æ¶ī": 2056,
      "çĲ´": 2057,
      "æ¯ķä¸ļ": 2058,
      "é¼": 2059,
      "è®Ģ": 2060,
      "çİī": 2061,
      "æ´¥": 2062,
      "åĪĹè¡¨": 2063,
      "æĿľ": 2064,
      "èĨ": 2065,
      "å±ĭ": 2066,
      "ç©Ĩ": 2067,
      "æİ¥åıĹ": 2068,
      "åį¢": 2069,
      "æ°ĳåľĭ": 2070,
      "éĺ¿å°Ķ": 2071,
      "ç³ĸ": 2072,
      "äººæ°ĳåħ±åĴĮåĽ½": 2073,
      "æŃ·åı²": 2074,
      "è®·": 2075,
      "ç§ĺ": 2076,
      "å»·": 2077,
      "æ¼Ķåĩº": 2078,
      "é¢¨æļ´": 2079,
      "æĿĲ": 2080,
      "é¡¿": 2081,
      "äºĳ": 2082,
      "åĩ±": 2083,
      "æĻº": 2084,
      "æŀĿ": 2085,
      "åĪ°äºĨ": 2086,
      "èŃ¦å¯Ł": 2087,
      "å¼º": 2088,
      "å»³": 2089,
      "è§Ĥ": 2090,
      "èĩªçĶ±": 2091,
      "çĥĪ": 2092,
      "æĻ¨": 2093,
      "åĨĻ": 2094,
      "è¾¹": 2095,
      "and": 2096,
      "éĻ¸åľ°": 2097,
      "ãĢĭãĢģãĢĬ": 2098,
      "ä¸Ģèµ·": 2099,
      "èĤ¡": 2100,
      "ï¼Īï¼Įï¼īï¼Į": 2101,
      "ac": 2102,
      "ĠR": 2103,
      "im": 2104,
      "us": 2105,
      "åĲ¸": 2106,
      "ç©¿": 2107,
      "äººåı£å¯Ĩåº¦": 2108,
      "æī§": 2109,
      "ä¸»ä»»": 2110,
      "ãĢĭï¼Ī": 2111,
      "å½¢æĪĲ": 2112,
      "ä¸Ńåįİäººæ°ĳåħ±åĴĮåĽ½": 2113,
      "çŃĳ": 2114,
      "éĩįè¦ģ": 2115,
      "æķĻæİĪ": 2116,
      "è»Ĭç«Ļ": 2117,
      "èĮ¨": 2118,
      "éĦī": 2119,
      "æ¨ĵ": 2120,
      "çĶ±äºİ": 2121,
      "æľĢå¾Į": 2122,
      "çĻ¼å±ķ": 2123,
      "ĠG": 2124,
      "éĽ¨": 2125,
      "åĩºçı¾": 2126,
      "åĳ½åĲį": 2127,
      "æķ¦": 2128,
      "ç¨±çĤº": 2129,
      "ä¿Ħç½Ĺæĸ¯": 2130,
      "åľ°æĸ¹": 2131,
      "å«": 2132,
      "åĩł": 2133,
      "æĸ¹éĿ¢": 2134,
      "é»Ħ": 2135,
      "éºĹ": 2136,
      "ç¯ĢçĽ®": 2137,
      "è·Ł": 2138,
      "çļĦä¸Ģä¸ª": 2139,
      "ç¶ĵæ¿Ł": 2140,
      "åĥħ": 2141,
      "çĸ«": 2142,
      "é¥": 2143,
      "éĢĲ": 2144,
      "èĩ£": 2145,
      "ç«¥": 2146,
      "æŁĲ": 2147,
      "è®©": 2148,
      "çĽ®åīį": 2149,
      "ç¢º": 2150,
      "èĵĭ": 2151,
      "ç´°èĥŀ": 2152,
      "ĠE": 2153,
      "çĭ¬": 2154,
      "çķ¢": 2155,
      "æ¼¢": 2156,
      "çĻ¼çı¾": 2157,
      "æ´»åĬ¨": 2158,
      "éŁĵåľĭ": 2159,
      "ig": 2160,
      "è¤": 2161,
      "åħ¨çĲĥ": 2162,
      "çļĦä¸Ģéĥ¨åĪĨ": 2163,
      "ä½Ļ": 2164,
      "ç»Ĩ": 2165,
      "æ´ª": 2166,
      "è§Ĵèī²": 2167,
      "åħ¬éĸĭ": 2168,
      "éľį": 2169,
      "æİ¡": 2170,
      "å¹´ç¾İåľĭäººåı£æĻ®æŁ¥": 2171,
      "åĪĺ": 2172,
      "è¿½": 2173,
      "è¾²": 2174,
      "å¾Įä¾Ĩ": 2175,
      "ç¤¾æľĥ": 2176,
      "æ³ķéĻ¢": 2177,
      "ç¦®": 2178,
      "å±¬æĸ¼": 2179,
      "äººåı£å¯Ĩåº¦çĤºæ¯ı": 2180,
      "éĢĥ": 2181,
      "åĪĬ": 2182,
      "æĪª": 2183,
      "çİ©": 2184,
      "çľ¼": 2185,
      "ä¹ĭåĲİ": 2186,
      "æł¹æį®": 2187,
      "çĶ·æĢ§": 2188,
      "ĠI": 2189,
      "äººå£«": 2190,
      "ä¼ģ": 2191,
      "çĪĨ": 2192,
      "2011": 2193,
      "æ°´åŁŁ": 2194,
      "ent": 2195,
      "ä¸½": 2196,
      "å®®": 2197,
      "åŁ·": 2198,
      "æĮī": 2199,
      "å®ĺæĸ¹": 2200,
      "æĺŁæľŁ": 2201,
      "æ¦ľ": 2202,
      "å°¾": 2203,
      "æľĢç»Ī": 2204,
      "åķıé¡Į": 2205,
      "80": 2206,
      "¶é¢¨": 2207,
      "èĬ¬": 2208,
      "çĽ´åĪ°": 2209,
      "ä¸ĢäºĽ": 2210,
      "åĳ¼": 2211,
      "é¢¶é¢¨": 2212,
      "æıı": 2213,
      "45": 2214,
      "ut": 2215,
      "æķĹ": 2216,
      "åĤ·": 2217,
      "åħ³ç³»": 2218,
      "å¢ŀåĬł": 2219,
      "35": 2220,
      "é®": 2221,
      "æŀģ": 2222,
      "ä»»ä½ķ": 2223,
      "æ¼«": 2224,
      "åħ´": 2225,
      "æ°ĳæĹı": 2226,
      "è©±": 2227,
      "çĻ¼çĶŁ": 2228,
      "å®¡": 2229,
      "æĭľ": 2230,
      "çº¢": 2231,
      "åħ¬åħ±": 2232,
      "ä¿Ĥ": 2233,
      "ç¨®æĹı": 2234,
      "ç»ıæµİ": 2235,
      "è´£": 2236,
      "éŁ³ä¹Ĳ": 2237,
      "ç¡®": 2238,
      "èĪªç©º": 2239,
      "189": 2240,
      "å²¸": 2241,
      "çĳŁ": 2242,
      "æ°£æĹĭ": 2243,
      "çĬ¶": 2244,
      "æĸĹ": 2245,
      "å¾ģ": 2246,
      "åĬª": 2247,
      "è¡£": 2248,
      "åĭĿ": 2249,
      "å¨ľ": 2250,
      "æķ¸æĵļ": 2251,
      "æĺĮ": 2252,
      "æĪı": 2253,
      "ç¯ī": 2254,
      "å¥¥è¿Ĳ": 2255,
      "è¶³çĲĥ": 2256,
      "æī¾": 2257,
      "æ³ģ": 2258,
      "é«ĺéĢŁ": 2259,
      "éĢļéģİ": 2260,
      "åıĳçĶŁ": 2261,
      "éĩįæĸ°": 2262,
      "æ¯Ķè³½": 2263,
      "æ»¿": 2264,
      "çĸĳ": 2265,
      "æ¿Ģ": 2266,
      "ĠF": 2267,
      "å»ºçŃĳ": 2268,
      "éĢłæĪĲ": 2269,
      "å¯¶": 2270,
      "çķ¥": 2271,
      "è½¨": 2272,
      "è¾ĳ": 2273,
      "èİī": 2274,
      "é°": 2275,
      "ç§Ģ": 2276,
      "åŃ¦æł¡": 2277,
      "çµķ": 2278,
      "éĬ·": 2279,
      "åĪĳ": 2280,
      "æĽ¿": 2281,
      "æĢ¥": 2282,
      "ç¬¬åĽĽ": 2283,
      "åħ±åĲĮ": 2284,
      "æ°£å£ĵ": 2285,
      "åĬŁèĥ½": 2286,
      "é¨": 2287,
      "ä¹ł": 2288,
      "æĿ¿": 2289,
      "èĥ¡": 2290,
      "ç§ĳæĬĢ": 2291,
      "ir": 2292,
      "çĽ§": 2293,
      "é¡¯": 2294,
      "æĳ©": 2295,
      "éĻĦè¿ĳ": 2296,
      "de": 2297,
      "ä¸ĬåįĪ": 2298,
      "éħĴ": 2299,
      "æĪ¶": 2300,
      "éĽ£": 2301,
      "è·Ŀ": 2302,
      "é£ŀ": 2303,
      "å²ģ": 2304,
      "ä½İæ°£å£ĵ": 2305,
      "è²łè²¬": 2306,
      "å®īåħ¨": 2307,
      "éĢ²åħ¥": 2308,
      "éĢĻäºĽ": 2309,
      "å¤ªå¹³": 2310,
      "åĲ¦": 2311,
      "èĪ¬": 2312,
      "è§ģ": 2313,
      "èŃ¦åł±": 2314,
      "æľīéĻĲåħ¬åı¸": 2315,
      "ï¼ĮãĢĬ": 2316,
      "190": 2317,
      "æŁĵ": 2318,
      "åħ§çļĦ": 2319,
      "éĮ¦": 2320,
      "æĸ¯ç§ĳ": 2321,
      "æµ·è»į": 2322,
      "åŃ¸çĶŁ": 2323,
      "èİİ": 2324,
      "åıĸå¾Ĺ": 2325,
      "ĠD": 2326,
      "å¹ķ": 2327,
      "æĪ´": 2328,
      "æĪĲåĳĺ": 2329,
      "è¬Ŀ": 2330,
      "æĪ·": 2331,
      "2000": 2332,
      "å¥ī": 2333,
      "è¨Ĭ": 2334,
      "æ±½": 2335,
      "æľĢçµĤ": 2336,
      "æı´": 2337,
      "åľĭæľĥ": 2338,
      "ä¾§": 2339,
      "ç¦ģ": 2340,
      "æ¢ģ": 2341,
      "è¿ĻäºĽ": 2342,
      "è¨ĪåĬĥ": 2343,
      "ĠW": 2344,
      "çļĦå¤§": 2345,
      "çīĽ": 2346,
      "ä¼ĳ": 2347,
      "ç¾İæ´²": 2348,
      "åĿĢ": 2349,
      "èº«ä»½": 2350,
      "æ¤įçī©": 2351,
      "ä¸ĢåĲį": 2352,
      "ç§ģ": 2353,
      "é¢ĳ": 2354,
      "æİ§åĪ¶": 2355,
      "éĳ": 2356,
      "åŁ¹": 2357,
      "ä¾µ": 2358,
      "åħĭéĩĮ": 2359,
      "ä¹ĭéĸĵ": 2360,
      "èĹĿè¡ĵ": 2361,
      "ä»ħ": 2362,
      "ä¸»æĮģ": 2363,
      "2012": 2364,
      "ä¹ĭåīį": 2365,
      "åıĳå±ķ": 2366,
      "çłĶç©¶æīĢ": 2367,
      "çµĦç¹Ķ": 2368,
      "å¯º": 2369,
      "æĸ¹æ³ķ": 2370,
      "å§Ķåĵ¡æľĥ": 2371,
      "å·¨": 2372,
      "å±¤": 2373,
      "æĸ¯åŁº": 2374,
      "èĻİ": 2375,
      "ä¸¤ä¸ª": 2376,
      "å¤ªå¹³æ´ĭ": 2377,
      "ãģ": 2378,
      "ãĤ": 2379,
      "åı¬": 2380,
      "åĬī": 2381,
      "æĺ¯çĶ±": 2382,
      "çĽ£": 2383,
      "éĻ¸åľ°éĿ¢ç©įçĤº": 2384,
      "æ°´åŁŁéĿ¢ç©įçĤº": 2385,
      "åĽ´": 2386,
      "çĤ¸": 2387,
      "åħĭæĸ¯": 2388,
      "å»ºç¯ī": 2389,
      "èį·": 2390,
      "çµ¦äºĪ": 2391,
      "éĢĶ": 2392,
      "ä»¥ä¸ĭ": 2393,
      "åĮĹéĥ¨": 2394,
      "åĮħåĲ«": 2395,
      "è¿Ķ": 2396,
      "æĶĿ": 2397,
      "æķĳ": 2398,
      "æĹ¶éĹ´": 2399,
      "æ£Ģ": 2400,
      "é£¾": 2401,
      "ç¿»": 2402,
      "å¦Ĥæŀľ": 2403,
      "å½¢å¼ı": 2404,
      "æ³ķåŃĲ": 2405,
      "ä¹ĭéĹ´": 2406,
      "åĿ¡": 2407,
      "å¾ĹåĪ°": 2408,
      "éľ²": 2409,
      "ç¾ħæĸ¯": 2410,
      "ç§°ä¸º": 2411,
      "ç¸½çµ±": 2412,
      "th": 2413,
      "å°¤": 2414,
      "ç»ľ": 2415,
      "è¯Ĩ": 2416,
      "æķ°æį®": 2417,
      "éĹ®é¢ĺ": 2418,
      "æ³ķåŃĲèĭ±": 2419,
      "æĺĤ": 2420,
      "éĩĭ": 2421,
      "å°¼äºļ": 2422,
      "ç®Ģ": 2423,
      "ä¾Ĩèĩª": 2424,
      "çĹħæ¯Ĵ": 2425,
      "æİ¨åĩº": 2426,
      "æľįåĭĻ": 2427,
      "æİĴåĲį": 2428,
      "éªĮ": 2429,
      "èģļ": 2430,
      "å¥¹çļĦ": 2431,
      "2024": 2432,
      "çĥŃ": 2433,
      "åı¦å¤ĸ": 2434,
      "æĻļä¸Ĭ": 2435,
      "å¥Ī": 2436,
      "éĥĳ": 2437,
      "åįĹçľģ": 2438,
      "ul": 2439,
      "éģĩ": 2440,
      "è½®": 2441,
      "èıĮ": 2442,
      "æ¶¯": 2443,
      "èĹ¥": 2444,
      "åıįåºĶ": 2445,
      "çĳª": 2446,
      "æ¨¡åŀĭ": 2447,
      "åļ´": 2448,
      "of": 2449,
      "å¾Ĵ": 2450,
      "éĺ¶": 2451,
      "éĺ¿æĭī": 2452,
      "äººåı£æľī": 2453,
      "éĹľä¿Ĥ": 2454,
      "æħĭ": 2455,
      "éļĶ": 2456,
      "æĻĤæľŁ": 2457,
      "èģĶåĲĪ": 2458,
      "èĦĤ": 2459,
      "æ¦®": 2460,
      "å¸ĮæľĽ": 2461,
      "ç·¨èĻŁ": 2462,
      "çķ¢æ¥Ń": 2463,
      "çļĦæĸ°": 2464,
      "åŃĶ": 2465,
      "åºĨ": 2466,
      "çĶ¨äºİ": 2467,
      "çĵ¦çľģ": 2468,
      "åĢĭäºº": 2469,
      "è¿Ľåħ¥": 2470,
      "æĸ·": 2471,
      "ä»·": 2472,
      "åĪº": 2473,
      "éĽª": 2474,
      "å¤ļéĿ¢é«Ķ": 2475,
      "æŃ¤éİ®åįĢ": 2476,
      "ç·´": 2477,
      "åįģäºĮ": 2478,
      "åĤĳ": 2479,
      "çķ¶ä¸Ń": 2480,
      "ä¹¦è®°": 2481,
      "åľ°éĵģ": 2482,
      "éĽ¶": 2483,
      "ä¿±": 2484,
      "æ³ķåľĭ": 2485,
      "é¢Ħ": 2486,
      "åĽłä¸º": 2487,
      "éģĵè·¯": 2488,
      "å½±åĵį": 2489,
      "ä½Ĩæĺ¯": 2490,
      "éĽĨåĽ¢": 2491,
      "2007": 2492,
      "ç²Ĵ": 2493,
      "è®¡åĪĴ": 2494,
      "åįļçī©": 2495,
      "um": 2496,
      "æ³ķå¾ĭ": 2497,
      "å½ĵæĹ¶": 2498,
      "åĦª": 2499,
      "å¸ĿåĽ½": 2500,
      "è¶ĬåįĹ": 2501,
      "è¨±å¤ļ": 2502,
      "éĿ©åĳ½": 2503,
      "éģł": 2504,
      "ç»§": 2505,
      "çĶŁæ¶¯": 2506,
      "å£¤": 2507,
      "è¾Ĩ": 2508,
      "è´Ł": 2509,
      "ç¼º": 2510,
      "æľįåĬ¡": 2511,
      "ag": 2512,
      "çº¿è·¯": 2513,
      "è¿Ļä¸ª": 2514,
      "ç¶ŃçĪ¾": 2515,
      "é°Ń": 2516,
      "44": 2517,
      "ow": 2518,
      "å¹´åľ¨": 2519,
      "å®Ŀ": 2520,
      "åŃŁ": 2521,
      "è¨´": 2522,
      "çłģ": 2523,
      "æºª": 2524,
      "çĹĩ": 2525,
      "é¢Ĩå¯¼": 2526,
      "ub": 2527,
      "çļĦæĥħ": 2528,
      "åĩĮ": 2529,
      "åİĤ": 2530,
      "æ¾¤": 2531,
      "è¹": 2532,
      "åı«": 2533,
      "åıªæľī": 2534,
      "åı¦ä¸Ģ": 2535,
      "éĻ½": 2536,
      "è¯į": 2537,
      "çĶŁçī©": 2538,
      "æľĢä½³": 2539,
      "éĿŀå¸¸": 2540,
      "èĲ¨çĵ¦çľģ": 2541,
      "èĩªå·±çļĦ": 2542,
      "ä»ģ": 2543,
      "ä¸ĢèĪ¬": 2544,
      "ä¹Ķ": 2545,
      "åĮ¹": 2546,
      "æİ¢": 2547,
      "ä½ľçĶ¨": 2548,
      "çµ²": 2549,
      "å¦»": 2550,
      "èĭıèģĶ": 2551,
      "å±ħæ°ĳ": 2552,
      "90": 2553,
      "å¿ł": 2554,
      "æĸ°çļĦ": 2555,
      "ç§ĳåŃ¦": 2556,
      "ä¸¦åľ¨": 2557,
      "åıĳå¸ĥ": 2558,
      "2023": 2559,
      "èĪīè¾¦": 2560,
      "çļĦæĺ¯": 2561,
      "åľ°ä¸ĭ": 2562,
      "ç«¹": 2563,
      "åĬłæĭ¿": 2564,
      "åİ»ä¸ĸ": 2565,
      "è¸": 2566,
      "æĹ§": 2567,
      "å¥ı": 2568,
      "ä¿ĥ": 2569,
      "è©ŀ": 2570,
      "åįĹéĥ¨": 2571,
      "æĭīæĸ¯": 2572,
      "è®¡ç®Ĺ": 2573,
      "æ±ºå®ļ": 2574,
      "ap": 2575,
      "äººåľ¨": 2576,
      "åĨµ": 2577,
      "è¥¿äºŀ": 2578,
      "éĿ¢ç§¯": 2579,
      "èĭ±æł¼": 2580,
      "ec": 2581,
      "åį»": 2582,
      "åº«": 2583,
      "åħ¬è·¯": 2584,
      "åĳĪ": 2585,
      "è¾ĥ": 2586,
      "èĩªæ²»": 2587,
      "èįĥ": 2588,
      "ç¯Ħ": 2589,
      "æŃĮæīĭ": 2590,
      "çīĪæľ¬": 2591,
      "éª¨": 2592,
      "åħħ": 2593,
      "å®ľ": 2594,
      "æŃ¸": 2595,
      "éĻĪ": 2596,
      "ç§ĭ": 2597,
      "ç¬¦": 2598,
      "åįĢèŃ°æľĥ": 2599,
      "è¼ķ": 2600,
      "éĢĻåĢĭ": 2601,
      "åıĥåĬł": 2602,
      "æ¸¸æĪı": 2603,
      "åĲĽ": 2604,
      "çĶĺ": 2605,
      "è¿«": 2606,
      "çĤºäºĨ": 2607,
      "åĩºéģĵ": 2608,
      "ä¸»ç¾©": 2609,
      "çİĽ": 2610,
      "ä½įç½®": 2611,
      "å¸Ĥæ°ĳ": 2612,
      "æŁı": 2613,
      "åıĳçİ°": 2614,
      "åįļå£«": 2615,
      "æŃ»äº¡": 2616,
      "æ¾³éĸĢ": 2617,
      "ä¸Ńèı¯æ°ĳåľĭ": 2618,
      "38": 2619,
      "åĲ¯": 2620,
      "å®ĩ": 2621,
      "æĺĨ": 2622,
      "çĻĤ": 2623,
      "åķŁ": 2624,
      "æĮĩåĩº": 2625,
      "èı¯çĽĽ": 2626,
      "éĻ¤äºĨ": 2627,
      "aint": 2628,
      "èı¯çĽĽéłĵ": 2629,
      "åĽº": 2630,
      "æĶ¿çŃĸ": 2631,
      "ç½ĳç»ľ": 2632,
      "èį£æŀĿ": 2633,
      "åĬ³èį£æŀĿ": 2634,
      "éłĴ": 2635,
      "è£¡": 2636,
      "æľĢåĪĿ": 2637,
      "ä¸¦ä¸Ķ": 2638,
      "åıĤä¸İ": 2639,
      "100": 2640,
      "48": 2641,
      "os": 2642,
      "åľĵ": 2643,
      "åºĦ": 2644,
      "éļ§": 2645,
      "æĵį": 2646,
      "æį¢": 2647,
      "èģĶèµĽ": 2648,
      "æĶ¿æ²»äººçī©": 2649,
      "å¤ıåŃ£": 2650,
      "éĥŃ": 2651,
      "åĨ°": 2652,
      "æĪĲçļĦ": 2653,
      "çĪµ": 2654,
      "éĩĮéģĶ": 2655,
      "çĽ´æİ¥": 2656,
      "èĮ²": 2657,
      "æ²Ļçī¹": 2658,
      "ice": 2659,
      "åĨįæ¬¡": 2660,
      "ä¸Ńåħ±": 2661,
      "ä½ľå®¶": 2662,
      "æĬµ": 2663,
      "è³´": 2664,
      "æ®ĸ": 2665,
      "èį¯": 2666,
      "æ»¡": 2667,
      "çĳŀå£«": 2668,
      "Saint": 2669,
      "ä¸´": 2670,
      "åŃ©": 2671,
      "æĿ°": 2672,
      "éĽ²": 2673,
      "æıĽ": 2674,
      "å¯¦é©Ĺ": 2675,
      "é¯ī": 2676,
      "è¤ĩ": 2677,
      "éĥµ": 2678,
      "è®¿": 2679,
      "è¯Ŀ": 2680,
      "éĺ»": 2681,
      "éĹ»": 2682,
      "æĮĩå®ļ": 2683,
      "åĶ¯": 2684,
      "å®Įåħ¨": 2685,
      "ä½Ľç¾ħ": 2686,
      "æ³½": 2687,
      "æĥł": 2688,
      "æĿ¥èĩª": 2689,
      "æª¢": 2690,
      "éĮ¦æ¨Ļ": 2691,
      "ay": 2692,
      "éĭ": 2693,
      "ĠK": 2694,
      "å¾ħ": 2695,
      "éĢ±": 2696,
      "åĭŀ": 2697,
      "åĪĨåĪ¥": 2698,
      "å°¼äºŀ": 2699,
      "è¼¸": 2700,
      "åĬłæĭ¿å¤§": 2701,
      "75": 2702,
      "è¯Ĺ": 2703,
      "çķ°": 2704,
      "å¾·åĽ½": 2705,
      "ç¶±": 2706,
      "åĿĲ": 2707,
      "é¤ĺ": 2708,
      "46": 2709,
      "70": 2710,
      "ne": 2711,
      "Ġt": 2712,
      "ï¼į": 2713,
      "åĪ»": 2714,
      "éĥİ": 2715,
      "æ¯«": 2716,
      "è¨ª": 2717,
      "åĭ¢": 2718,
      "æ±ł": 2719,
      "èĭ±åĽ½": 2720,
      "å¢ĵ": 2721,
      "2009": 2722,
      "è°¢": 2723,
      "åĨłè»į": 2724,
      "æ¯ķä¸ļäºİ": 2725,
      "è¯·": 2726,
      "è¡¨æ¼Ķ": 2727,
      "æĹ¶æľŁ": 2728,
      "å¤ĸäº¤": 2729,
      "çĽ¸éĹľ": 2730,
      "2008": 2731,
      "æħ¶": 2732,
      "âĢĶâĢĶ": 2733,
      "iv": 2734,
      "ä½µ": 2735,
      "ä¸ĢçĽ´": 2736,
      "ä¹¡": 2737,
      "ä¹Ļ": 2738,
      "èĪĬ": 2739,
      "éŁ¦": 2740,
      "åĲİæĿ¥": 2741,
      "æĢ§çļĦ": 2742,
      "çĨ±å¸¶é¢¨æļ´": 2743,
      "èµĦæł¼": 2744,
      "å´ĩ": 2745,
      "çį¨ç«ĭ": 2746,
      "çĶļ": 2747,
      "æķ¬": 2748,
      "æ¸¬": 2749,
      "æ¨¡å¼ı": 2750,
      "é§Ĳ": 2751,
      "36": 2752,
      "ia": 2753,
      "ter": 2754,
      "é¸": 2755,
      "äº«": 2756,
      "çļĦåĲį": 2757,
      "å¾ĳ": 2758,
      "è±ª": 2759,
      "å±ŀäºİ": 2760,
      "ç¾½æ¯Ľ": 2761,
      "éļ§éģĵ": 2762,
      "ä½Ľç¾ħéĩĮéģĶ": 2763,
      "éĮ¦æ¨Ļè³½": 2764,
      "é±": 2765,
      "åİħ": 2766,
      "æ¸Ľ": 2767,
      "ä¸ªäºº": 2768,
      "åģ´": 2769,
      "ç¤ºå¨ģ": 2770,
      "é³¥": 2771,
      "åĲ³": 2772,
      "æĺ¾": 2773,
      "æĿ¯": 2774,
      "éĽĸ": 2775,
      "çĽĬ": 2776,
      "åĢŁ": 2777,
      "æİ¥å£¤": 2778,
      "ä¿¡æģ¯": 2779,
      "æĬķç¥¨": 2780,
      "èª¿æŁ¥": 2781,
      "%ãĢĤ": 2782,
      "éĲµè·¯": 2783,
      "ill": 2784,
      "åįĶæľĥ": 2785,
      "å¹´åº¦": 2786,
      "è¯ĳ": 2787,
      "æĢģ": 2788,
      "æ¸©": 2789,
      "çĲĨè«ĸ": 2790,
      "æį·": 2791,
      "æĹ©æľŁ": 2792,
      "éĬĢ": 2793,
      "id": 2794,
      "éļİ": 2795,
      "èŃĺ": 2796,
      "è¾Ľ": 2797,
      "è³ĵ": 2798,
      "æĤ£": 2799,
      "ä¸ĺ": 2800,
      "å¾µ": 2801,
      "éģ¿": 2802,
      "èĳ£": 2803,
      "2004": 2804,
      "è¿Ļä¸Ģ": 2805,
      "å²©": 2806,
      "è¿ĲèĲ¥": 2807,
      "è¿ĲåĬ¨åĳĺ": 2808,
      "æııè¿°": 2809,
      "èŁ": 2810,
      "éĿĪ": 2811,
      "æ¯ıå¹´": 2812,
      "åľŁåľ°": 2813,
      "ç¹¼çºĮ": 2814,
      "-{": 2815,
      "43": 2816,
      "}-": 2817,
      "ĠN": 2818,
      "è¿ľ": 2819,
      "æĭĽ": 2820,
      "è¯»": 2821,
      "æµ·é¾į": 2822,
      "åĪĹè»Ĭ": 2823,
      "æĽ¾åľ¨": 2824,
      "å°±æĺ¯": 2825,
      "åĦĦ": 2826,
      "ï¼Īï¼Įï¼ī": 2827,
      "è®¸å¤ļ": 2828,
      "em": 2829,
      "åĲ´": 2830,
      "æ³Ľ": 2831,
      "å®¶åºŃ": 2832,
      "æĭīä¸ģ": 2833,
      "æ¥Ĭ": 2834,
      "åİŁä½ı": 2835,
      "ç¬¬ä¸Ģæ¬¡": 2836,
      "èģ¯çĽŁ": 2837,
      "æī§è¡Į": 2838,
      "è®Ń": 2839,
      "ä¼ļè®®": 2840,
      "åħĥç´ł": 2841,
      "2003": 2842,
      "æĪĺäºī": 2843,
      "è°ĥæŁ¥": 2844,
      "æ¬§æ´²": 2845,
      "èĽĭçĻ½": 2846,
      "æĹ¥èµ·": 2847,
      "å¯§": 2848,
      "å¯©": 2849,
      "èģŀ": 2850,
      "èĥľ": 2851,
      "èĥ½å¤": 2852,
      "æĦıå¤§åĪ©": 2853,
      "éłĤé»ŀ": 2854,
      "çļĦæķ¸æĵļ": 2855,
      "çĶº": 2856,
      "å»ł": 2857,
      "åħ¬å¸ĥ": 2858,
      "æĵģ": 2859,
      "è´¥": 2860,
      "éĤĢ": 2861,
      "å½±çīĩ": 2862,
      "æ¶µ": 2863,
      "æ¶ħ": 2864,
      "å±ı": 2865,
      "éĽľ": 2866,
      "ç«¶": 2867,
      "ç«ŀ": 2868,
      "éĿł": 2869,
      "è¨ĵ": 2870,
      "å·ŀå¸Ĥ": 2871,
      "åĪ©çĶ¨": 2872,
      "è³¼": 2873,
      "ä¸¦æĸ¼": 2874,
      "ä¿ĿæĬ¤": 2875,
      "é¤Ĭ": 2876,
      "ç»ĵæŀĦ": 2877,
      "åĩ½": 2878,
      "åĲįçļĦ": 2879,
      "è¥¿éĥ¨": 2880,
      "è·¨": 2881,
      "å¾·åľĭ": 2882,
      "è¼ī": 2883,
      "èĦĪ": 2884,
      "è¯Ńè¨Ģ": 2885,
      "èĦĤé¯ī": 2886,
      "éı": 2887,
      "å¾¡": 2888,
      "æĹ¥èĩ³": 2889,
      "ç»ĥ": 2890,
      "æ¨¹": 2891,
      "æ¡ĥ": 2892,
      "äº¬éĥ½": 2893,
      "é¢±é¢¨èŃ¦åł±": 2894,
      "ç»Ĩèĥŀ": 2895,
      "è¿·": 2896,
      "é¡º": 2897,
      "æģ¢": 2898,
      "æĺ¯ä¸ĢåĢĭ": 2899,
      "éĢīä¸¾": 2900,
      "æµĭè¯ķ": 2901,
      "é¬¥": 2902,
      "èķ": 2903,
      "ä¼¤": 2904,
      "æŀĲ": 2905,
      "éļª": 2906,
      "å®¶æĹı": 2907,
      "è½½": 2908,
      "é«ĺçŃī": 2909,
      "å»ºéĢł": 2910,
      "åı¸ä»¤": 2911,
      "åĭķçķ«": 2912,
      "è¼ª": 2913,
      "éĿŀæ´²": 2914,
      "ç¿¼": 2915,
      "åħ¶ä¸Ńä¸Ģ": 2916,
      "æ¶Īæģ¯": 2917,
      "åīµä½ľ": 2918,
      "ä¸¥": 2919,
      "ä½Ĳ": 2920,
      "æĭĨ": 2921,
      "å½¼": 2922,
      "è¯ī": 2923,
      "åŃ¦ä¹ł": 2924,
      "ä¸īå¹´": 2925,
      "éĽĨä¸Ń": 2926,
      "ä¸¾è¡Į": 2927,
      "39": 2928,
      "ä¸ŃåŃ¦": 2929,
      "èĢ³": 2930,
      "çī¹åĪ¥": 2931,
      "çĻ¼å¸ĥ": 2932,
      "å¦¹": 2933,
      "åįģä¸Ģ": 2934,
      "ç¯ĩ": 2935,
      "æµģè¡Į": 2936,
      "çµĦåĲĪ": 2937,
      "ä¼´": 2938,
      "æĭĴ": 2939,
      "è¨İ": 2940,
      "è¥²": 2941,
      "ç«ĭæ³ķ": 2942,
      "éĽĨæľĥ": 2943,
      "å·²ç»ı": 2944,
      "åħ©åĢĭ": 2945,
      "çµĲæŀľ": 2946,
      "çµĲæ§ĭ": 2947,
      "åĶ±çīĩ": 2948,
      "åĨ³å®ļ": 2949,
      "çĭ¬ç«ĭ": 2950,
      "éĢ¢": 2951,
      "éĢĿ": 2952,
      "è¡Ŀ": 2953,
      "ä¼°": 2954,
      "ä¸įæĺ¯": 2955,
      "äºĮä¸ĸ": 2956,
      "ä¸ĸç´Ģ": 2957,
      "æ¼Ķåĵ¡": 2958,
      "æģĲ": 2959,
      "çĨ±å¸¶æ°£æĹĭ": 2960,
      "èĥĮæĻ¯": 2961,
      "èģ¯åĲĪé¢±é¢¨èŃ¦åł±": 2962,
      "èģ¯åĲĪé¢±é¢¨èŃ¦åł±ä¸Ńå¿ĥ": 2963,
      "å¤§éĩı": 2964,
      "ç¤¼": 2965,
      "å»ºè®¾": 2966,
      "ers": 2967,
      "å·²ç¶ĵ": 2968,
      "çĸĨ": 2969,
      "å½ĵåľ°": 2970,
      "49": 2971,
      "ä»ĺ": 2972,
      "æīİ": 2973,
      "æµĻ": 2974,
      "åħ¶å¾Į": 2975,
      "è¨Ĥ": 2976,
      "çĶŁçĶ¢": 2977,
      "ç¬¬äºĶ": 2978,
      "é«ĺä¸Ń": 2979,
      "å¹³åı°": 2980,
      "æľĢåĲİ": 2981,
      "å¢¨": 2982,
      "èĶ¡": 2983,
      "çĸ«æĥħ": 2984,
      "åİŁä½ıæ°ĳ": 2985,
      "æĸŃ": 2986,
      "ä¼ĺ": 2987,
      "çĽĸ": 2988,
      "æ³ī": 2989,
      "çĪ¾æĸ¯": 2990,
      "åŁºæľ¬": 2991,
      "éĥ½æĺ¯": 2992,
      "ç½Ĺé©¬": 2993,
      "ation": 2994,
      "æŃĲæ´²": 2995,
      "ãĢĪ": 2996,
      "äº¿": 2997,
      "åį±": 2998,
      "ï¼ī.": 2999,
      "å½Ĵ": 3000,
      "è´¢": 3001,
      "éĤ®": 3002,
      "æĽ¾ä»»": 3003,
      "åıįå°į": 3004,
      "åı¯ä»¥æĮĩ": 3005,
      "ard": 3006,
      "åįİä¸º": 3007,
      "é½Ĳ": 3008,
      "å°İèĩ´": 3009,
      "éĩĩçĶ¨": 3010,
      "åĩĮæĻ¨": 3011,
      "ï¼ħ": 3012,
      "ãĢī": 3013,
      "æĭ¥": 3014,
      "åľĭæ°ĳ": 3015,
      "ä¸Ĭæĺł": 3016,
      "èµ¤": 3017,
      "åĲįä¸º": 3018,
      "æĵ¾": 3019,
      "å¦®": 3020,
      "åıĳè¡Į": 3021,
      "1990": 3022,
      "ç¬¬äºĮæ¬¡": 3023,
      "éĲĺ": 3024,
      "çļĦéĿ¢ç©įçĤº": 3025,
      "å°Ĭ": 3026,
      "ä¹¾": 3027,
      "éģĹ": 3028,
      "ä¸ĬèĲ¨çĵ¦çľģ": 3029,
      "åŃ¦ä½į": 3030,
      "å§ĵ": 3031,
      "å·¥ä¸ļ": 3032,
      "çĽ¸åħ³": 3033,
      "ä¹Ĳéĥ¨": 3034,
      "åħ±æľīäººåı£": 3035,
      "ä¿±ä¹Ĳéĥ¨": 3036,
      "Ch": 3037,
      "å¤§éĻĨ": 3038,
      "èģ½": 3039,
      "çŃ¾": 3040,
      "è´Ń": 3041,
      "2001": 3042,
      "1999": 3043,
      "å¯¼èĩ´": 3044,
      "çķ¶åľ°åħ±æľīäººåı£": 3045,
      "èŀį": 3046,
      "å¹´ç¾İåľĭäººåı£æĻ®æŁ¥çļĦæķ¸æĵļ": 3047,
      "äººåı£å¯Ĩåº¦çĤºæ¯ıå¹³æĸ¹åįĥç±³": 3048,
      "èįĥçģ£": 3049,
      "åĩºä»»": 3050,
      "èĢĮäººåı£å¯Ĩåº¦çĤºæ¯ıå¹³æĸ¹åįĥç±³": 3051,
      "èĥ½åĬĽ": 3052,
      "åĮĸåŃ¦": 3053,
      "éŃĶ": 3054,
      "å¸Ŀåľĭ": 3055,
      "çļĦå±±": 3056,
      "çĻ¼è¡¨": 3057,
      "âĢĿï¼Ī": 3058,
      "2005": 3059,
      "æ¡Īä»¶": 3060,
      "IN": 3061,
      "åħĦ": 3062,
      "çĶ¨æĸ¼": 3063,
      "åĭķçī©": 3064,
      "ä½ĵèĤ²": 3065,
      "ç¡¬": 3066,
      "äººåĵ¡": 3067,
      "è¿İ": 3068,
      "æľīéĹľ": 3069,
      "åĩºæ¼Ķ": 3070,
      "ä¸»æ¼Ķ": 3071,
      "åĪ©äºŀ": 3072,
      "è£ľ": 3073,
      "ç«Ļåı°": 3074,
      "ãĢįï¼Ī": 3075,
      "ä½¿å¾Ĺ": 3076,
      "one": 3077,
      "é©¬æĿ¥": 3078,
      "ç²ī": 3079,
      "å¢ĥåĨħ": 3080,
      "åı¶": 3081,
      "ä¹İ": 3082,
      "å½©": 3083,
      "éļ¾": 3084,
      "éłĪ": 3085,
      "æŀĹåĮ¹": 3086,
      "çĽ¸åĲĮ": 3087,
      "æ¢°": 3088,
      "ç©ºè»į": 3089,
      "çĨĻ": 3090,
      "æĺ¯ä¸Ģä¸ª": 3091,
      "æĩ·": 3092,
      "op": 3093,
      "ĠãĢĤ": 3094,
      "åĨ²": 3095,
      "åħ¬åľĴ": 3096,
      "å¸Ńä½į": 3097,
      "çĨ±å¸¶ä½İæ°£å£ĵ": 3098,
      "æĵģæľī": 3099,
      "Ã©": 3100,
      "äºķ": 3101,
      "çĶŁçļĦ": 3102,
      "éĥ¨éķ¿": 3103,
      "åĲįçĤº": 3104,
      "å§Ĳ": 3105,
      "éĸĭçĻ¼": 3106,
      "2006": 3107,
      "çĦ¡æ³ķ": 3108,
      "å¹³æĸ¹åħ¬éĩĮ": 3109,
      "åĽ°": 3110,
      "å¥ª": 3111,
      "è¡ĮåĬ¨": 3112,
      "åĪĨåĪ«": 3113,
      "åģ¶": 3114,
      "æĴ¤": 3115,
      "çĸĹ": 3116,
      "èİ«æĸ¯ç§ĳ": 3117,
      "éµ": 3118,
      "æ°§": 3119,
      "æĿ¨": 3120,
      "å»Ł": 3121,
      "åħ¬äº¤": 3122,
      "ä¸»é¡Į": 3123,
      "ä¸įä¹ħ": 3124,
      "è½¯": 3125,
      "åĪ©äºļ": 3126,
      "åħĭåħ°": 3127,
      "èª²": 3128,
      "ç§ĳåŃ¦éĻ¢": 3129,
      "å±±ä¸ľ": 3130,
      "éĢĻç¨®": 3131,
      "éĿĴå¹´": 3132,
      "éłħçĽ®": 3133,
      "åĶ¯ä¸Ģ": 3134,
      "èĿ": 3135,
      "Ġï¼Į": 3136,
      "åĩºçİ°": 3137,
      "çº½": 3138,
      "èĬĴ": 3139,
      "1996": 3140,
      "ç©ºéĸĵ": 3141,
      "éº¦": 3142,
      "æĲŃ": 3143,
      "ç°½": 3144,
      "éĢıéģİ": 3145,
      "å«Į": 3146,
      "éĺ¶æ®µ": 3147,
      "è´Łè´£": 3148,
      "æŀĹåĮ¹åħĭ": 3149,
      "37": 3150,
      "cod": 3151,
      "ot": 3152,
      "çŀ": 3153,
      "åħģ": 3154,
      "åįĳ": 3155,
      "ä¸Ģä¸ĸ": 3156,
      "åĢĴ": 3157,
      "éĺµ": 3158,
      "éł»": 3159,
      "éĺ¿çĪ¾": 3160,
      "ç¨ĭåºı": 3161,
      "èĹį": 3162,
      "æĪ°çĪŃ": 3163,
      "è§£æĶ¾": 3164,
      "æ¹¾": 3165,
      "æŃ¦åĻ¨": 3166,
      "åĸ®æĽ²": 3167,
      "éĴ±": 3168,
      "è¡Ĺéģĵ": 3169,
      "æĳĦ": 3170,
      "åģ¥åº·": 3171,
      "ç¾½æ¯ĽçĲĥ": 3172,
      "éĽĸçĦ¶": 3173,
      "ĠO": 3174,
      "å®«": 3175,
      "æĸ¯å¡Ķ": 3176,
      "ç»Ŀ": 3177,
      "æİĮ": 3178,
      "æŀª": 3179,
      "ç½ķ": 3180,
      "è¾ĵ": 3181,
      "èĩªçĦ¶": 3182,
      "åĿİ": 3183,
      "æ¼¸": 3184,
      "çį»": 3185,
      "è¼»": 3186,
      "çµĲæĿŁ": 3187,
      "æ°£è±¡å»³": 3188,
      "iP": 3189,
      "è¦Ĩ": 3190,
      "åłħ": 3191,
      "åİŁåĽł": 3192,
      "æĹ¥æľ¬æ°£è±¡å»³": 3193,
      "çµ±è¨Ī": 3194,
      "åªĴä½ĵ": 3195,
      "codice": 3196,
      "æĹ¥ä¸ĬåįĪ": 3197,
      "æĿĤ": 3198,
      "æµª": 3199,
      "ç´Ĳ": 3200,
      "è¦º": 3201,
      "ä»»åĳ½": 3202,
      "çģµ": 3203,
      "è³½äºĭ": 3204,
      "çĨĬ": 3205,
      "åľĺé«Ķ": 3206,
      "æ¯«ç±³": 3207,
      "ä½Ľç¾ħéĩĮéģĶå·ŀ": 3208,
      "The": 3209,
      "éį": 3210,
      "Ġof": 3211,
      "äº¨": 3212,
      "ä»Ķ": 3213,
      "ä½Ķ": 3214,
      "éĻ£": 3215,
      "å¾·éĩĮ": 3216,
      "å·¥äºº": 3217,
      "æīĢä»¥": 3218,
      "ç·Ĭ": 3219,
      "ï¼ļãĢĮ": 3220,
      "é©»": 3221,
      "åŁºåĽł": 3222,
      "ant": 3223,
      "åıĤèµĽ": 3224,
      "èħ¦": 3225,
      "æĬ¥éģĵ": 3226,
      "éĽ»è¦ĸåĬĩ": 3227,
      "åĩºçĶŁäºİ": 3228,
      "éĵ¶è¡Į": 3229,
      "é®®": 3230,
      "Ġ\"": 3231,
      "åľ°åĪ©": 3232,
      "è¡Įåĭķ": 3233,
      "åŃ¦å®¶": 3234,
      "æĻĤä»£": 3235,
      "åĬłæĭī": 3236,
      "é¡ĺ": 3237,
      "åħ¨éĥ¨": 3238,
      "çķ¶éģ¸": 3239,
      "æľºæŀĦ": 3240,
      "ç¯®": 3241,
      "å¹¿æĴŃ": 3242,
      "æłĩåĩĨ": 3243,
      "è¿ĲåĬ¨ä¼ļ": 3244,
      "500": 3245,
      "äº®": 3246,
      "ãĢĤâĢĿ": 3247,
      "åıĽ": 3248,
      "äººåĳĺ": 3249,
      "éĩĿ": 3250,
      "å¤§å¤ļ": 3251,
      "éłĨ": 3252,
      "å¼Ģåıĳ": 3253,
      "ç»ĦæĪĲ": 3254,
      "åģľæŃ¢": 3255,
      "æĭįæĶĿ": 3256,
      "é¨İ": 3257,
      "åľĭæľĥéģ¸åįĢ": 3258,
      "æµĻæ±Ł": 3259,
      "32": 3260,
      "ie": 3261,
      "oc": 3262,
      "äººçĤº": 3263,
      "åħ¬åĽŃ": 3264,
      "ä¸įèĥ½": 3265,
      "ä¸įéģİ": 3266,
      "ä¹Łæľī": 3267,
      "èĢħçļĦ": 3268,
      "å°ıæĻĤ": 3269,
      "è©²åľĭ": 3270,
      "1991": 3271,
      "ç¹ģ": 3272,
      "ç´Ħç¿°": 3273,
      "çµĦæĪĲ": 3274,
      "ç»ĵæĿŁ": 3275,
      "è¬Ľ": 3276,
      "éĨ«éĻ¢": 3277,
      "é¢¶é¢¨ä¸Ńå¿ĥ": 3278,
      "é£¾æ¼Ķ": 3279,
      "å®ħ": 3280,
      "å®ĭ": 3281,
      "è¡¥": 3282,
      "åĩºçļĦ": 3283,
      "åħ¥åı£": 3284,
      "éĽĻæīĵ": 3285,
      "åħ¹": 3286,
      "æĭ©": 3287,
      "åľ°éľĩ": 3288,
      "è®²": 3289,
      "èĪį": 3290,
      "çĶµè½¦": 3291,
      "çĵľ": 3292,
      "ç»ĵæŀľ": 3293,
      "åĮ»éĻ¢": 3294,
      "ä¹Įåħĭåħ°": 3295,
      "çļĦé¦ĸ": 3296,
      "å°½": 3297,
      "å¤§èĩ£": 3298,
      "èĩ¨": 3299,
      "ä¸»æķĻ": 3300,
      "åĪĨæŀĲ": 3301,
      "æĸĩåŃ¸": 3302,
      "å¡ĺ": 3303,
      "è¿Ļç§į": 3304,
      "æĢ»ç»Ł": 3305,
      "æ±Łèĭı": 3306,
      "åįķä½į": 3307,
      "å¦»åŃĲ": 3308,
      "çļĦç¬¬ä¸Ģ": 3309,
      "å¹´èµ·": 3310,
      "åĪĨå¸ĥ": 3311,
      "æ³ķæ¡Ī": 3312,
      "èªĮ": 3313,
      "æı®": 3314,
      "èĭ±æĸĩ": 3315,
      "æ©«": 3316,
      "æ»ĳ": 3317,
      "åıĸæ¶Ī": 3318,
      "ä¸ĸçķĮå¤§": 3319,
      "éĶ¡": 3320,
      "éĶ¦": 3321,
      "éĻįæł¼çĤº": 3322,
      "æ¦Ĥå¿µ": 3323,
      "ç¯®çĲĥ": 3324,
      "47": 3325,
      "te": 3326,
      "ĠV": 3327,
      "æ°Ł": 3328,
      "åľĭç«ĭ": 3329,
      "è´ı": 3330,
      "éĻ¢å£«": 3331,
      "èĤº": 3332,
      "1980": 3333,
      "èĩºåĮĹ": 3334,
      "ä¿Ħç¾ħæĸ¯": 3335,
      "ä¸ĵå®¶": 3336,
      "çĴ°å¢ĥ": 3337,
      "Ġm": 3338,
      "æľĭ": 3339,
      "ä»²": 3340,
      "ä¸Ģæ¬¡": 3341,
      "éļľ": 3342,
      "å¸Ĥåł´": 3343,
      "ä½ıæĪ¿": 3344,
      "ä¸įåĲĮçļĦ": 3345,
      "58": 3346,
      "ï¼ĮâĢľ": 3347,
      "åĩ¯": 3348,
      "æ³³": 3349,
      "åĬłåĿ¡": 3350,
      "æĸ¹åĲĳ": 3351,
      "æĺİæľĿ": 3352,
      "å·´çĪ¾": 3353,
      "èµĽåŃ£": 3354,
      "ç¹ª": 3355,
      "åĦĢ": 3356,
      "èĦ±": 3357,
      "å¤ĦçĲĨ": 3358,
      "pp": 3359,
      "éģ·": 3360,
      "å¼¹": 3361,
      "æĭ³": 3362,
      "åŁĶ": 3363,
      "åħ¬åħĥ": 3364,
      "ç¬¬åįģ": 3365,
      "æľ¬ç«Ļ": 3366,
      "æ±Ĺ": 3367,
      "æĸ°åĬłåĿ¡": 3368,
      "å¹¶ä¸Ķ": 3369,
      "èħĬ": 3370,
      "ç´ĢéĮĦ": 3371,
      "æ°£è±¡å±Ģ": 3372,
      "å¹¸": 3373,
      "å®½": 3374,
      "ãĢģãĢģ": 3375,
      "éĻ·": 3376,
      "æŀļ": 3377,
      "è¢Ń": 3378,
      "æ¥¼": 3379,
      "æĽ´å¤ļ": 3380,
      "åıĥéģ¸": 3381,
      "è¶ħéģİ": 3382,
      "ĠCh": 3383,
      "ä¸ĵè¾ĳ": 3384,
      "42": 3385,
      "bo": 3386,
      "uc": 3387,
      "æĹº": 3388,
      "éĻµ": 3389,
      "æĿī": 3390,
      "å®ļçļĦ": 3391,
      "çł²": 3392,
      "éĩįå»º": 3393,
      "2002": 3394,
      "è®¾å¤ĩ": 3395,
      "ç»ıè¿ĩ": 3396,
      "æĺ¯ä¸Ģç§į": 3397,
      "ure": 3398,
      "èĴĻåı¤": 3399,
      "çĶļèĩ³": 3400,
      "Ġc": 3401,
      "å¹´éĸĵ": 3402,
      "å°ĸ": 3403,
      "ä¸Ńæĸĩ": 3404,
      "æī©": 3405,
      "åŃ¸ç¿Ĵ": 3406,
      "è¡¨éĿ¢": 3407,
      "åķ¦": 3408,
      "åħ§æľī": 3409,
      "åĨłåĨĽ": 3410,
      "æ¶µèĵĭ": 3411,
      "33": 3412,
      "56": 3413,
      "av": 3414,
      "gt": 3415,
      "ov": 3416,
      "se": 3417,
      "é´": 3418,
      "æĪĴ": 3419,
      "è²´": 3420,
      "èĳ¡": 3421,
      "åħ§å®¹": 3422,
      "187": 3423,
      "çİĭæľĿ": 3424,
      "ä¸ŃåĽ½å¤§éĻĨ": 3425,
      "éĢīæĭ©": 3426,
      "èħº": 3427,
      "éĺ¿æĭīä¼¯": 3428,
      "ç¤ºå¨ģèĢħ": 3429,
      "é©¬æĿ¥è¥¿äºļ": 3430,
      "ĠJ": 3431,
      "æĮ¥": 3432,
      "åŃ¸å®¶": 3433,
      "åĪ¶ä½ľ": 3434,
      "åīĩæľī": 3435,
      "èĢĮäººåı£å¯Ĩåº¦çĤºæ¯ıå¹³æĸ¹åįĥç±³äºº": 3436,
      "og": 3437,
      "çļĦåľ°": 3438,
      "éģ©": 3439,
      "è¿ģ": 3440,
      "å¥Ĺ": 3441,
      "çĶŁæĪĲ": 3442,
      "çī¹åĪ«": 3443,
      "è©©": 3444,
      "æĮ¯": 3445,
      "é¢Ŀ": 3446,
      "åħ±äº§": 3447,
      "åĪ¶åº¦": 3448,
      "å¤©æĸĩ": 3449,
      "èĻŁç·ļ": 3450,
      "èĬ±åľĴ": 3451,
      "éģĬè¡Į": 3452,
      "å®ŀçİ°": 3453,
      "ä¸ĵä¸ļ": 3454,
      "çİ©å®¶": 3455,
      "ak": 3456,
      "lt": 3457,
      "zh": 3458,
      "å¹´å¤ıåŃ£": 3459,
      "åľ¨æŃ¤": 3460,
      "æľīäºº": 3461,
      "åĩı": 3462,
      "æĪĲéĥ½": 3463,
      "ä¿Ĺ": 3464,
      "åŃ¦åĳĺ": 3465,
      "åĪĨåŃĲ": 3466,
      "è½»": 3467,
      "åĬ¨çĶ»": 3468,
      "å·´è¥¿": 3469,
      "çĶµåŃĲ": 3470,
      "èģĶçĽŁ": 3471,
      "éĢŁåº¦": 3472,
      "è§Ħæ¨¡": 3473,
      "li": 3474,
      "ï¼ģ": 3475,
      "ä¸ŃåŃ¸": 3476,
      "åĬį": 3477,
      "åħ¬æ°ĳ": 3478,
      "åıĳè¡¨": 3479,
      "å¤©æ´¥": 3480,
      "æ¶²": 3481,
      "1993": 3482,
      "æ©Łæ§ĭ": 3483,
      "æĬ¥åĳĬ": 3484,
      "åĸ®ä½į": 3485,
      "å±ħä½ı": 3486,
      "å¿«éĢŁ": 3487,
      "èīºæľ¯": 3488,
      "æİ¡çĶ¨": 3489,
      "æĪªèĩ³": 3490,
      "41": 3491,
      "You": 3492,
      "ç´«": 3493,
      "åŃ¦çĶŁ": 3494,
      "èĢĮè©²": 3495,
      "é¦ĸæĴŃ": 3496,
      "éģİç¨ĭ": 3497,
      "èŃ°éĻ¢": 3498,
      "æĪĳä»¬": 3499,
      "åħ±åĴĮåľĭ": 3500,
      "éĪ": 3501,
      "å¹´è¢«": 3502,
      "æĹģ": 3503,
      "çĤİ": 3504,
      "å»ī": 3505,
      "åĲįç¨±": 3506,
      "è·¯ç·ļ": 3507,
      "æľĢå¤§": 3508,
      "ç§ĳçļĦ": 3509,
      "å°ıåŃ¸": 3510,
      "è¶£": 3511,
      "çĲĥéĺŁ": 3512,
      "åİŁæľ¬": 3513,
      "æĶ¹çĤº": 3514,
      "éĺŁä¼į": 3515,
      "art": 3516,
      "ç»´å°Ķ": 3517,
      "ç²¹": 3518,
      "èĦ«": 3519,
      "é»ŀçĤº": 3520,
      "åł±åĳĬ": 3521,
      "å·¦åı³": 3522,
      "ä¸°": 3523,
      "éģº": 3524,
      "éĥ¨èĲ½": 3525,
      "æĬ½": 3526,
      "åĲĮæĦı": 3527,
      "è³ŀ": 3528,
      "çĲĨäºĭ": 3529,
      "æĸ°éĹ»": 3530,
      "ãĢįãĢģ": 3531,
      "çŃīäºº": 3532,
      "åģı": 3533,
      "éĩįåĬĽ": 3534,
      "åĽĽå¹´": 3535,
      "1994": 3536,
      "è¬Ģ": 3537,
      "æĭ¥æľī": 3538,
      "ãĢĤãĢį": 3539,
      "åºĬ": 3540,
      "æĹ¥åĩĮæĻ¨": 3541,
      "åĴĮå¹³": 3542,
      "æ¸¡": 3543,
      "åįĢèŃ°åĵ¡": 3544,
      "èĲĦ": 3545,
      "æĸ°ç«¹": 3546,
      "è½¦è¾Ĩ": 3547,
      "ine": 3548,
      "ç¶ĵæŃ·": 3549,
      "åºĶçĶ¨": 3550,
      "èĻķçĲĨ": 3551,
      "æµ·é¾įå±¬": 3552,
      "èĳ¡èĲĦ": 3553,
      "å¹«": 3554,
      "åĲ¬": 3555,
      "å¼Ĥ": 3556,
      "åĭ¤": 3557,
      "æĮĳ": 3558,
      "çī©çĲĨ": 3559,
      "æ®¿": 3560,
      "åľĭå®¶é¢¶é¢¨ä¸Ńå¿ĥ": 3561,
      "æ¾³æ´²": 3562,
      "ç´Ģå¿µ": 3563,
      "åªĴé«Ķ": 3564,
      "çİ¯å¢ĥ": 3565,
      "éı¡": 3566,
      "æĵ¾åĭķ": 3567,
      "æĹ¥çļĦ": 3568,
      "éĽĢ": 3569,
      "åĢį": 3570,
      "çĻĮ": 3571,
      "ä¸»è§Ĵ": 3572,
      "èĢĮæ°´åŁŁéĿ¢ç©įçĤº": 3573,
      "å£ŀ": 3574,
      "åĿļ": 3575,
      "åĲĪçī©": 3576,
      "çıł": 3577,
      "éŁĭ": 3578,
      "å°įæĸ¼": 3579,
      "188": 3580,
      "ä¸ľéĥ¨": 3581,
      "åĨħçļĦ": 3582,
      "ç©ºéĹ´": 3583,
      "å½ĵéĢī": 3584,
      "ä¸¾åĬŀ": 3585,
      "éļıåĲİ": 3586,
      "åį°åº¦å°¼": 3587,
      "çķ¶ä¸ŃéĻ¸åľ°éĿ¢ç©įçĤº": 3588,
      "æ®ĸæ°ĳ": 3589,
      "çĺ": 3590,
      "æ´ŀ": 3591,
      "è¥¿åĮĹ": 3592,
      "ãĢĬãĢĭ": 3593,
      "æĵĩ": 3594,
      "çĽ´æĴŃ": 3595,
      "æļĹ": 3596,
      "è£½ç³ĸ": 3597,
      "1950": 3598,
      "åŃŁåĬłæĭī": 3599,
      "ce": 3600,
      "å¹´æ¯ķä¸ļäºİ": 3601,
      "å®¿": 3602,
      "æĺ¯åĲ¦": 3603,
      "æµ¦": 3604,
      "åįĹåĮĹ": 3605,
      "æĭīå¤«": 3606,
      "æĸĩåŃ¦": 3607,
      "çıį": 3608,
      "å°ıè¯´": 3609,
      "åĮºåŁŁ": 3610,
      "è°ĭ": 3611,
      "æľºåľº": 3612,
      "å¥¥æŀĹåĮ¹åħĭ": 3613,
      "éº»": 3614,
      "éĨĩ": 3615,
      "ä»įçĦ¶": 3616,
      "éģŃåĪ°": 3617,
      "æľĭåıĭ": 3618,
      "å¹´ç¾İåĽ½": 3619,
      "æĺŃ": 3620,
      "åŃĻ": 3621,
      "çĤºç¾İåľĭ": 3622,
      "åĳ³": 3623,
      "åįĹäº¬": 3624,
      "æĸĩç«ł": 3625,
      "é¡§": 3626,
      "å®īæİĴ": 3627,
      "éĽĨåľĺ": 3628,
      "äº¤æĺĵ": 3629,
      "é½Ĭ": 3630,
      "åĨľä¸ļ": 3631,
      "èĭ±æł¼èĺŃ": 3632,
      "éĢ¢æĺŁæľŁ": 3633,
      "AR": 3634,
      "åĪĢ": 3635,
      "å°ĭ": 3636,
      "æĹ¥ä¸ĭåįĪ": 3637,
      "éĻ¶": 3638,
      "åĨ·": 3639,
      "èµ´": 3640,
      "èĢĮä¸Ķ": 3641,
      "å¤ļæ¬¡": 3642,
      "èĩ³å°ĳ": 3643,
      "æľĢæĹ©": 3644,
      "è²·": 3645,
      "éģ¸æĵĩ": 3646,
      "ä½Ĩåľ¨": 3647,
      "æ£Ĵ": 3648,
      "æĪĸèĢħ": 3649,
      "å¨Ľ": 3650,
      "æĿ¥çļĦ": 3651,
      "è¿ĩç¨ĭ": 3652,
      "åĽŀåĪ°": 3653,
      "å¼ķèµ·": 3654,
      "é¡ŀä¼¼": 3655,
      "æĺ¯ä½įæĸ¼ç¾İåľĭåĸ¬æ²»äºŀå·ŀ": 3656,
      "å¾Īå¤ļ": 3657,
      "éļ¨å¾Į": 3658,
      "é°ŃéŃļ": 3659,
      "å½¼å¾Ĺ": 3660,
      "per": 3661,
      "æ°¢": 3662,
      "æĿŃ": 3663,
      "æĽĨ": 3664,
      "åħ¬å®ī": 3665,
      "æĸ°çĸĨ": 3666,
      "æĸĩçī©": 3667,
      "æŁ¯": 3668,
      "åįģåħŃ": 3669,
      "æıĲåįĩ": 3670,
      "æįĲ": 3671,
      "è¿Ļæĺ¯": 3672,
      "çı¾åł´": 3673,
      "1998": 3674,
      "äºĶå¹´": 3675,
      "èģĶéĤ¦": 3676,
      "éĢ£æİ¥": 3677,
      "å°ĩåħ¶éĻįæł¼çĤº": 3678,
      "æ¼ĶåĶ±æľĥ": 3679,
      "åļ´éĩį": 3680,
      "ä¸Ī": 3681,
      "çĤ®": 3682,
      "æľīæķĪ": 3683,
      "æĭĺ": 3684,
      "æĸ¯æĻ®": 3685,
      "âĢĵ": 3686,
      "åĩºåħ¥åı£": 3687,
      "æĬĳ": 3688,
      "ç½·": 3689,
      "1986": 3690,
      "çĩĥ": 3691,
      "å°İæ¼Ķ": 3692,
      "éĽ¢éĸĭ": 3693,
      "ç¾İæ´²åİŁä½ıæ°ĳ": 3694,
      "çĢ": 3695,
      "æŃ¡": 3696,
      "éĽķ": 3697,
      "åĵ²": 3698,
      "éĩĮæĸ¯": 3699,
      "è£Ĥ": 3700,
      "è²¡": 3701,
      "æ®Ĭ": 3702,
      "å¿ĥçĲĨ": 3703,
      "ç¤¾åįĢ": 3704,
      "1997": 3705,
      "åıĸä»£": 3706,
      "å°ĳå¹´": 3707,
      "éĴŁ": 3708,
      "åįıä¼ļ": 3709,
      "åįļçī©é¦Ĩ": 3710,
      "å¨Ľæ¨Ĥ": 3711,
      ")ï¼Į": 3712,
      "51": 3713,
      "Ġ-": 3714,
      "åŃ«": 3715,
      "æķı": 3716,
      "ä»¥ä¾Ĩ": 3717,
      "ä¸įåĨį": 3718,
      "åĲĮä¸Ģ": 3719,
      "æľĢå¤§çļĦ": 3720,
      "çľģä»½": 3721,
      "æ¢¯": 3722,
      "è¨Īçķ«": 3723,
      "éĢīæīĭ": 3724,
      "1988": 3725,
      "æħ§": 3726,
      "ell": 3727,
      "ç¼ĸçłģ": 3728,
      "è£Ķç¾İåľĭäºº": 3729,
      "æĨ²": 3730,
      "æ¡ĳçµ¦": 3731,
      "è¼»é°ŃéŃļ": 3732,
      "è¼»é°ŃéŃļç¶±": 3733,
      "hone": 3734,
      "çļĦä¸»è¦ģ": 3735,
      "å¾Ĳ": 3736,
      "ç»į": 3737,
      "ä¸ºäºĨ": 3738,
      "åĩºèº«": 3739,
      "æĽ¹": 3740,
      "çķĶ": 3741,
      "ç¸¾": 3742,
      "åįģå¹´": 3743,
      "æľªèĥ½": 3744,
      "å¥¹åľ¨": 3745,
      "1992": 3746,
      "ç¢¼": 3747,
      "è§ĦåĪĴ": 3748,
      "è¿ŀæİ¥": 3749,
      "è¥¿çıŃçīĻè£Ķ": 3750,
      "é¹¿": 3751,
      "è´Ŀå°Ķ": 3752,
      "ç»§ç»Ń": 3753,
      "æ¡ĳçµ¦å·´çĪ¾": 3754,
      "52": 3755,
      "å¹´éĹ´": 3756,
      "æŃ§": 3757,
      "çĽĺ": 3758,
      "ç§Ł": 3759,
      "æłĳ": 3760,
      "èŃ¯": 3761,
      "æĵ´": 3762,
      "èĤī": 3763,
      "éĽ»åŃĲ": 3764,
      "èŃ¦åĵ¡": 3765,
      "ç½Ĺè®·": 3766,
      "ä¿ĿèŃ·": 3767,
      "åħ¶ä¸ŃçĶ·æĢ§": 3768,
      "1983": 3769,
      "å¨ģçĪ¾": 3770,
      "å¸ĮèħĬ": 3771,
      "æī¹åĩĨ": 3772,
      "éĤĬå½¢": 3773,
      "æ··è¡Ģ": 3774,
      "è½Ħä¸ĭçļĦ": 3775,
      "ä¹¾éļĨ": 3776,
      "åįĳæĸ¯": 3777,
      "68": 3778,
      "åľĪ": 3779,
      "åıī": 3780,
      "éĩĬ": 3781,
      "ä¼ı": 3782,
      "éĺ®": 3783,
      "å£ģ": 3784,
      "èīĺ": 3785,
      "è´µ": 3786,
      "å¼ĢéĢļ": 3787,
      "åĨĽéĺŁ": 3788,
      "ä¼Ĭæĸ¯": 3789,
      "æĺ¯ä¸ĢåĲį": 3790,
      "æ¾³å¤§åĪ©": 3791,
      "å®ĹæķĻ": 3792,
      "ç¾½çĲĥåħ¬éĸĭ": 3793,
      "èĳ£äºĭ": 3794,
      "57": 3795,
      "Ġå¹´": 3796,
      "çļĦçī¹": 3797,
      "çļĦåīį": 3798,
      "ä¸Ģä½į": 3799,
      "å¤§åŀĭ": 3800,
      "å¼±": 3801,
      "åĩºäºĨ": 3802,
      "éĸī": 3803,
      "ç©©": 3804,
      "æĸ¹æ¡Ī": 3805,
      "è¢«åĳĬ": 3806,
      "æĶ¿äºĭ": 3807,
      "æıļ": 3808,
      "èıľ": 3809,
      "æ£ĺ": 3810,
      "åĨĽäºĭ": 3811,
      "èĹ¤": 3812,
      "ä¿ĿæĮģ": 3813,
      "ç»´å¥ĩ": 3814,
      "èĩºåįĹ": 3815,
      "å®£ä½Ī": 3816,
      "çĪ¶è¦ª": 3817,
      "åĨľæĿĳ": 3818,
      "çĶµè§Ĩåı°": 3819,
      "æĿĲæĸĻ": 3820,
      "ç¯Ħåľį": 3821,
      "Ġthe": 3822,
      "çļĦå±±å³°": 3823,
      "ON": 3824,
      "åħ»": 3825,
      "å®¾": 3826,
      "åĬ¿": 3827,
      "çĽĥ": 3828,
      "çĽľ": 3829,
      "ç»¼": 3830,
      "åİļ": 3831,
      "æĬ¼": 3832,
      "åįĢåŁŁ": 3833,
      "æĵ¬": 3834,
      "æľĢå¤ļ": 3835,
      "æĮĩæİ§": 3836,
      "ç¸£è½Ħä¸ĭçļĦ": 3837,
      "èĮµ": 3838,
      "æķ°éĩı": 3839,
      "1982": 3840,
      "åħ³äºİ": 3841,
      "æ³¢å£«": 3842,
      "ç¥¨æĪ¿": 3843,
      "1964": 3844,
      "éĶĢ": 3845,
      "ä¸ĥå¹´": 3846,
      "èĵĿ": 3847,
      "é¼ĵ": 3848,
      "éĢĿä¸ĸ": 3849,
      "TV": 3850,
      "ha": 3851,
      "çļĦä¸ī": 3852,
      "åĪ·": 3853,
      "ä¸Ńä¹¦": 3854,
      "éģķ": 3855,
      "èµµ": 3856,
      "è³£": 3857,
      "ç¥Ŀ": 3858,
      "èĭ±èªŀ": 3859,
      "æ¼Ķåĳĺ": 3860,
      "æĪĸæĭīä¸ģ": 3861,
      "éħ¶": 3862,
      "è±Ĳ": 3863,
      "èģ¯éĤ¦": 3864,
      "æ±Łè¥¿": 3865,
      "est": 3866,
      "ate": 3867,
      "æľĢé«ĺé»ŀçĤº": 3868,
      "åĲ¸å¼ķ": 3869,
      "æ¼«çķ«": 3870,
      "ç¨®æĹıæľī": 3871,
      "åħ§çļĦçĻ½": 3872,
      "æ±½è½¦": 3873,
      "å¤ªå¹³æ´ĭå³¶": 3874,
      "è¿ĶåĽŀ": 3875,
      "å¯¦é©Ĺå®¤": 3876,
      "ä¸¥éĩį": 3877,
      "èĢĮè©²åľ°": 3878,
      "å¹´ç¾İåĽ½äººåı£æĻ®æŁ¥": 3879,
      "æľĢé«ĺé»ŀçĤºæµ·æĭĶé«ĺåº¦": 3880,
      "54": 3881,
      "59": 3882,
      "ãĢĤãĢĬ": 3883,
      "å¹¼": 3884,
      "åĲ¾": 3885,
      "ä¸ŃæŃ¤éİ®åįĢ": 3886,
      "ä¹ĥ": 3887,
      "æľĪèĩ³": 3888,
      "çĽĲ": 3889,
      "åĨ¬": 3890,
      "å·ŀçļĦ": 3891,
      "èĢĮçĶ·æĢ§": 3892,
      "è¢«æįķ": 3893,
      "ä¹ĭå¹´é½¡ä¸Ńä½įæķ¸çĤº": 3894,
      "è»Ł": 3895,
      "äºŀè£Ķç¾İåľĭäººæľī": 3896,
      "çĻ¼èµ·": 3897,
      "äººåı£çµ±è¨Ī": 3898,
      "æ£Ħ": 3899,
      "éĿŀè£Ķç¾İåľĭäººæľī": 3900,
      "å¦Ĥä¸ĭ": 3901,
      "æĥħåĨµ": 3902,
      "éŃı": 3903,
      "æĪ°é¬¥": 3904,
      "ç¸½éĿ¢ç©įçĤº": 3905,
      "åħ¶ä¸ŃéĻ¸åľ°éĿ¢ç©įçĤº": 3906,
      "éİ®åįĢäººåı£æľī": 3907,
      "éİ®åįĢåħ§æľī": 3908,
      "éİ®åįĢæ¶µèĵĭ": 3909,
      "éİ®åįĢåħ§çļĦçĻ½": 3910,
      "åħ¶ä»ĸç¨®æĹıæľī": 3911,
      "1970": 3912,
      "1949": 3913,
      "ç¸£çļĦä¸ĢåĢĭäººåı£æĻ®æŁ¥": 3914,
      "ä¸¹éº¥": 3915,
      "å¥³æĢ§æľī": 3916,
      "å¥³æĢ§å¹´é½¡ä¸Ńä½įæķ¸çĤº": 3917,
      "æŃ¤å¤ĸéİ®åįĢåħ§æľī": 3918,
      "äººåı£å¯Ĩåº¦çĤºæ¯ıå¹³æĸ¹åħ¬éĩĮ": 3919,
      "ç¨®æĹıåīĩæľī": 3920,
      "æ°´åŁŁéĿ¢ç©įçĤºæĪĸ": 3921,
      "æŃ¤éİ®åįĢä¹ĭå¹´é½¡ä¸Ńä½įæķ¸çĤº": 3922,
      "æĮĩå®ļåľ°åįĢ": 3923,
      "äººçĤºè¥¿çıŃçīĻè£Ķ": 3924,
      "ä½ıæĪ¿è¨Ī": 3925,
      "çĤºç¾İåľĭåłªèĸ©æĸ¯å·ŀ": 3926,
      "ç¾İæ´²åİŁä½ıæ°ĳæľī": 3927,
      "åħ¶ä¸ŃçĶ·æĢ§æľī": 3928,
      "æ··è¡Ģç¨®æĹıåīĩæľī": 3929,
      "ç¸£è½Ħä¸ĭçļĦéİ®åįĢ": 3930,
      "æĪĸæĭīä¸ģè£Ķç¾İåľĭäºº": 3931,
      "å¤ªå¹³æ´ĭå³¶è£Ķç¾İåľĭäººæľī": 3932,
      "èĢĮè©²åľ°æľĢé«ĺé»ŀçĤºæµ·æĭĶé«ĺåº¦": 3933,
      "å¹´ç¾İåĽ½äººåı£æĻ®æŁ¥ä¸ŃæŃ¤éİ®åįĢ": 3934,
      "èĢĮçĶ·æĢ§å¹´é½¡ä¸Ńä½įæķ¸çĤº": 3935,
      "éİ®åįĢæ¶µèĵĭç¸½éĿ¢ç©įçĤº": 3936,
      "éİ®åįĢåħ§çļĦçĻ½äººæľī": 3937,
      "ç¸£çļĦä¸ĢåĢĭäººåı£æĻ®æŁ¥æĮĩå®ļåľ°åįĢ": 3938,
      "äººçĤºè¥¿çıŃçīĻè£ĶæĪĸæĭīä¸ģè£Ķç¾İåľĭäºº": 3939,
      "å¹´ç¾İåĽ½äººåı£æĻ®æŁ¥ä¸ŃæŃ¤éİ®åįĢäººåı£æľī": 3940,
      "ER": 3941,
      "çļĦç¬¬": 3942,
      "åį·": 3943,
      "åįľ": 3944,
      "å®ª": 3945,
      "å¾½": 3946,
      "è¡ĮçĤº": 3947,
      "åİĦ": 3948,
      "çī¹çļĦ": 3949,
      "æĻĤæ®µ": 3950,
      "èĩªè¡Į": 3951,
      "åº¦ç·ļ": 3952,
      "åĿĬ": 3953,
      "ä¾ĨçļĦ": 3954,
      "æĴ°": 3955,
      "æĮĩæĮ¥": 3956,
      "å·´å£«": 3957,
      "æł¡éķ·": 3958,
      "ç®¡è½Ħ": 3959,
      "æĬķåħ¥": 3960,
      "éĴĪ": 3961,
      "è¶ħè¿ĩ": 3962,
      "æĪĳåĢĳ": 3963,
      "æī¹è©ķ": 3964,
      "è®¡ç®Ĺæľº": 3965,
      "å¥¥æŀĹåĮ¹åħĭè¿ĲåĬ¨ä¼ļ": 3966,
      "ra": 3967,
      "ĠX": 3968,
      "å¹£": 3969,
      "ä¸ĢæŃ¥": 3970,
      "çĤºè¼»é°ŃéŃļç¶±": 3971,
      "æ°¯": 3972,
      "éĻĢ": 3973,
      "é«ĺéĽĦ": 3974,
      "æŁ±": 3975,
      "åħ¨åľĭ": 3976,
      "äºļéĢŁ": 3977,
      "éĢ²å£«": 3978,
      "1960": 3979,
      "ĠSt": 3980,
      "æĻļéĸĵ": 3981,
      "amp": 3982,
      "è¨ĺèĢħ": 3983,
      "èĪĪå»º": 3984,
      "å¿ħéłĪ": 3985,
      "çİĽä¸½": 3986,
      "ip": 3987,
      "nd": 3988,
      "Ġs": 3989,
      "Ġåľ¨": 3990,
      "çļĦä¸»": 3991,
      "ä»ª": 3992,
      "å¸ĸ": 3993,
      "ä¸Ģå¹´": 3994,
      "åĮ¯": 3995,
      "åħ¬å°º": 3996,
      "è¥¿ç¶ĵ": 3997,
      "è¥¿èĹı": 3998,
      "èĢĮåľ¨": 3999,
      "è·ĳ": 4000,
      "åĢĭæľĪ": 4001,
      "è·¯æĺĵ": 4002,
      "äºŀæ´²": 4003,
      "èĬĿ": 4004,
      "ï¼ļâĢľ": 4005,
      "æĶ¹éĿ©": 4006,
      "è¿Ĳè¡Į": 4007,
      "é¦Ļæ¸¯æĻĤéĸĵ": 4008,
      "æ¨Ļæºĸ": 4009,
      "ä½įæĸ¼è©²åľĭ": 4010,
      "åķĨæ¥Ń": 4011,
      "æĶ¶éĮĦ": 4012,
      "ä¼¯çī¹": 4013,
      "æ½®": 4014,
      "ä¼łç»Ł": 4015,
      "çļĩå¸Ŀ": 4016,
      "èı²å¾ĭ": 4017,
      "åħĦå¼Ł": 4018,
      "67": 4019,
      "App": 4020,
      "ew": 4021,
      "ä¸Ńéĥ¨": 4022,
      "å·§": 4023,
      "æĺ¯æĮĩ": 4024,
      "ä¼¸": 4025,
      "è·³": 4026,
      "çĶ¨æĪ·": 4027,
      "èĩªåĬ¨": 4028,
      "åĿĹ": 4029,
      "åħ¥ä¾µ": 4030,
      "åŁºéĩĳ": 4031,
      "åĬĽçļĦ": 4032,
      "åĨĽåĮº": 4033,
      "åĽĽå·Ŀ": 4034,
      "äº§çĶŁ": 4035,
      "ä»£è¡¨åĽ¢": 4036,
      "èĴĻçī¹": 4037,
      "é¡¯ç¤º": 4038,
      "åħĭéĩĮæĸ¯": 4039,
      "è®Ńç»ĥ": 4040,
      "å¹´åĪĿ": 4041,
      "äººåĴĮ": 4042,
      "ä¸ĢåĲĮ": 4043,
      "å¤§éĻ¸": 4044,
      "éĥ¨ä»½": 4045,
      "ä¹ĭå¤ĸ": 4046,
      "ç¦İ": 4047,
      "ç§ĳåŃ¸": 4048,
      "å°ıæĹ¶": 4049,
      "åĮºä¸º": 4050,
      "è«ĩ": 4051,
      "éħ®": 4052,
      "é¦¬éĩĮ": 4053,
      "æ²³çķĶ": 4054,
      "è¨Ńç«ĭ": 4055,
      "çİ°ä»£": 4056,
      "é»ĳèī²": 4057,
      "èī¦éļĬ": 4058,
      "æ··åĲĪ": 4059,
      "èĤ¡ä»½": 4060,
      "é±¼": 4061,
      "è¨ĵç·´": 4062,
      "éµĿ": 4063,
      "è´ıå¾Ĺ": 4064,
      "åħ±äº§åħļ": 4065,
      "çļĦçłĶç©¶": 4066,
      "å¹ħ": 4067,
      "ä»ķ": 4068,
      "åĲķ": 4069,
      "å±¯": 4070,
      "èĢĢ": 4071,
      "è¯¯": 4072,
      "åİĭ": 4073,
      "çĪ²": 4074,
      "ä¿Ĭ": 4075,
      "æĬĺ": 4076,
      "èŃ½": 4077,
      "çŃĶ": 4078,
      "ç¶ł": 4079,
      "å±±èĦĪ": 4080,
      "è²¨": 4081,
      "è±Ĩ": 4082,
      "çĽ´èĩ³": 4083,
      "æ»©": 4084,
      "è¨Ńæľī": 4085,
      "è¨Ńæĸ½": 4086,
      "çĸ¾": 4087,
      "å®ĥä»¬": 4088,
      "å¥§åĪ©": 4089,
      "éĻĲåĪ¶": 4090,
      "å©¦": 4091,
      "æĲį": 4092,
      "ç£ģ": 4093,
      "åŃ©åŃĲ": 4094,
      "iPhone": 4095,
      "é¦Ļæ¸¯æĻĤéĸĵéĢ¢æĺŁæľŁ": 4096,
      "å¹»": 4097,
      "æĪĢ": 4098,
      "ä¹±": 4099,
      "ï¼Īï¼Ľ": 4100,
      "æĻĭ": 4101,
      "å¯¸": 4102,
      "åĭĥ": 4103,
      "è¾ĸ": 4104,
      "é¡»": 4105,
      "é¡į": 4106,
      "éĸĭæĶ¾": 4107,
      "åĬ¨çī©": 4108,
      "æĻ®éĢļ": 4109,
      "éĿŀæ³ķ": 4110,
      "å¯¹äºİ": 4111,
      "éĮ¢": 4112,
      "åĬĩéĽĨ": 4113,
      "æ¹¯": 4114,
      "çĶ¢çĶŁ": 4115,
      "éĻįéĽ¨": 4116,
      "åİĨåı²ä¸Ĭ": 4117,
      "æĺ¾ç¤º": 4118,
      "å¤©æĸĩåı°": 4119,
      "éŀ": 4120,
      "å¸®": 4121,
      "å¤§ä½¿": 4122,
      "å¤§éĥ¨åĪĨ": 4123,
      "ä¼Ļ": 4124,
      "åĵª": 4125,
      "å»Ī": 4126,
      "ãĢĭï¼Īï¼ī": 4127,
      "è¾Ń": 4128,
      "ä¹Łè¢«": 4129,
      "åı°åĮĹ": 4130,
      "å¥¥æĸ¯": 4131,
      "æ³¢åħ°": 4132,
      "å®Įæķ´": 4133,
      "æĬķè³ĩ": 4134,
      "è³ĩæĸĻ": 4135,
      "ç±»ä¼¼": 4136,
      "å»£åł´": 4137,
      "çºªå¿µ": 4138,
      "heim": 4139,
      "çļĩå®¶": 4140,
      "é¢ĳéģĵ": 4141,
      "ç®Ģç§°": 4142,
      "55": 4143,
      "ee": 4144,
      "eg": 4145,
      "çļĦå°ı": 4146,
      "æĻī": 4147,
      "è®¨": 4148,
      "ä»¥ä¸Ĭ": 4149,
      "æµ®": 4150,
      "éļ»": 4151,
      "åıĬåħ¶": 4152,
      "æĸĩåŃĹ": 4153,
      "ç¸®": 4154,
      "å®ļç¾©": 4155,
      "éĩıçļĦ": 4156,
      "1985": 4157,
      "ç¢ĳ": 4158,
      "åľĺéļĬ": 4159,
      "å¡ŀå°Ķ": 4160,
      "çĶ²çĭĢ": 4161,
      "è¦ªæĸ¹": 4162,
      "ĠPro": 4163,
      "é¬¼": 4164,
      "é¥°": 4165,
      "å°½ç®¡": 4166,
      "ãĢįãĢģãĢĮ": 4167,
      "çĶ²çĭĢèħº": 4168,
      "ey": 4169,
      "Ġp": 4170,
      "å¤º": 4171,
      "è®¯": 4172,
      "éĿľ": 4173,
      "æ±ĩ": 4174,
      "ç¤İ": 4175,
      "åŁºç¤İ": 4176,
      "éĽ»èħ¦": 4177,
      "æ·¡": 4178,
      "ç¾ħé¦¬": 4179,
      "é¦Ļæ¸¯å¤©æĸĩåı°": 4180,
      "1995": 4181,
      "æļĤ": 4182,
      "1987": 4183,
      "æħ¢": 4184,
      "é»ĳé¾Ļ": 4185,
      "åĤ³çµ±": 4186,
      "éĿĴå²Ľ": 4187,
      "å¾ĭå¸Ī": 4188,
      "æĲľ": 4189,
      "èģ·æ¥Ń": 4190,
      "èİ±èĮµ": 4191,
      "çĪ¶äº²": 4192,
      "èĥ½å¤ł": 4193,
      "æ¡ĥåľĴ": 4194,
      "æģ¢å¤į": 4195,
      "34": 4196,
      "St": 4197,
      "ber": 4198,
      "res": 4199,
      "ï¼ı": 4200,
      "ä¸Ŀ": 4201,
      "äºĤ": 4202,
      "çļĦæĹ¶": 4203,
      "å¤§çº¦": 4204,
      "æĸ¯åħĭ": 4205,
      "ä»¥èī²": 4206,
      "åĽ½ç«ĭ": 4207,
      "åĲĪå¹¶": 4208,
      "å¸ĥåĢ«": 4209,
      "å·´åŁº": 4210,
      "ang": 4211,
      "åķĨä¸ļ": 4212,
      "æ£®åł¡": 4213,
      "æ¿±": 4214,
      "çŁ³æ²¹": 4215,
      "äº¦æľī": 4216,
      "1972": 4217,
      "1945": 4218,
      "èĲ¬ç¾İåħĥ": 4219,
      "åĢ«æķ¦": 4220,
      "æłĩèµĽ": 4221,
      "åįĶåĬ©": 4222,
      "æ¶īå«Į": 4223,
      "èĩªæ²»åĮº": 4224,
      "éĶ¦æłĩèµĽ": 4225,
      "æ°ŁåĮĸ": 4226,
      "åį°åº¦å°¼è¥¿äºŀ": 4227,
      "ä»¥èī²åĪĹ": 4228,
      "æĹ¦": 4229,
      "åĩ¡": 4230,
      "ç§¦": 4231,
      "åĽ½éĺ²": 4232,
      "èĢĮæĺ¯": 4233,
      "æĻĤä»»": 4234,
      "éĿ¢çļĦ": 4235,
      "é¡¶": 4236,
      "äºĭåĭĻ": 4237,
      "å°Ķå¾·": 4238,
      "è¡¨æĺİ": 4239,
      "å¼ĢæĶ¾": 4240,
      "å·´é»İ": 4241,
      "æĥħæ³ģ": 4242,
      "æļ«": 4243,
      "å®ĥåĢĳ": 4244,
      "åľĸæĽ¸": 4245,
      "æ½ĺ": 4246,
      "æĺ¯ä½įæĸ¼ç¾İåľĭéĺ¿èĤ¯èī²å·ŀ": 4247,
      "èģĮä¸ļ": 4248,
      "åįĢèŃ°æľĥéģ¸èĪī": 4249,
      "Apple": 4250,
      "64": 4251,
      "Ar": 4252,
      "au": 4253,
      "ĠU": 4254,
      "ä¸²": 4255,
      "çļĦå¥³": 4256,
      "äººé¡ŀ": 4257,
      "å¼ĺ": 4258,
      "è¯¸": 4259,
      "çºµ": 4260,
      "æİª": 4261,
      "åħ¬å¼Ģ": 4262,
      "çĶŁäº§": 4263,
      "èģĺ": 4264,
      "èīĩ": 4265,
      "æ²»çĸĹ": 4266,
      "æĪĸæĺ¯": 4267,
      "é«ĶèĤ²": 4268,
      "æĮĩæı®": 4269,
      "éĢĻæĺ¯": 4270,
      "æĮģçºĮ": 4271,
      "æ©ŁåĻ¨": 4272,
      "åŃĹä½ĵ": 4273,
      "æĬĢè¡ĵ": 4274,
      "çĬ¹": 4275,
      "å¸ĪèĮĥ": 4276,
      "çĬ¯ç½ª": 4277,
      "æĺ¯ä½įæĸ¼ç¾İåľĭåĬłåĪ©ç¦ıå°¼äºŀå·ŀèİ«": 4278,
      "ç¼ĸçłģä¸º": 4279,
      "ab": 4280,
      "oh": 4281,
      "ä»¥æĿ¥": 4282,
      "åĽ½æ°ĳ": 4283,
      "åĩºå¸Ń": 4284,
      "éĺª": 4285,
      "ä»»åĬ¡": 4286,
      "åħĭæĸ¯çī¹": 4287,
      "æĭīåħĭ": 4288,
      "éĤ±": 4289,
      "ç¥Ń": 4290,
      "çģ°": 4291,
      "åģī": 4292,
      "åŁºåľ°": 4293,
      "æģ°": 4294,
      "æŃ£åľ¨": 4295,
      "å·´å°Ķ": 4296,
      "è»įäºĭ": 4297,
      "æ·»": 4298,
      "æĺ¯ä¸Ģä½į": 4299,
      "1989": 4300,
      "æħ®": 4301,
      "åĪĿæľŁ": 4302,
      "æ³°åľĭ": 4303,
      "å¥½çļĦ": 4304,
      "æĦŁæŁĵ": 4305,
      "ç§»æ°ĳ": 4306,
      "è©ķè«ĸ": 4307,
      "æĹħå®¢": 4308,
      "ç²¾ç¥ŀ": 4309,
      "è½¨éģĵ": 4310,
      "åĩ½æķ°": 4311,
      "è½¯ä»¶": 4312,
      "æĬĳåĪ¶": 4313,
      "65": 4314,
      "åı¥": 4315,
      "ä¹Ī": 4316,
      "éģľ": 4317,
      "åĮĪ": 4318,
      "çĶŁäºİ": 4319,
      "åŃ¦åĲį": 4320,
      "åĪĨçĤº": 4321,
      "å¤ļåħĭ": 4322,
      "æĸ°èģŀ": 4323,
      "åŁºç¡": 4324,
      "éĽĨåĲĪ": 4325,
      "å¹¶åľ¨": 4326,
      "è¿Ľå£«": 4327,
      "çı¾åľ¨": 4328,
      "è®¾ç½®": 4329,
      "å°±è®Ģ": 4330,
      "åĻ¶": 4331,
      "æ¸ħæľĿ": 4332,
      "åī¯ä¸»å¸Ń": 4333,
      "è£½éĢł": 4334,
      "ise": 4335,
      "èĵ®": 4336,
      "å´Ķ": 4337,
      "æµİåįĹ": 4338,
      "ç¶²ç«Ļ": 4339,
      "äºĳåįĹ": 4340,
      "ä¼ģä¸ļ": 4341,
      "ä¹ĭéĸĵçļĦ": 4342,
      "æĭĴçµķ": 4343,
      "è¥²æĵĬ": 4344,
      "å·´åŁºæĸ¯åĿ¦": 4345,
      "77": 4346,
      "KP": 4347,
      "ä¹ı": 4348,
      "å½Ń": 4349,
      "ç´¹": 4350,
      "éĥ¨éļĬ": 4351,
      "éĥ¨éĹ¨": 4352,
      "ç¬ĳ": 4353,
      "è¥¿åįĹ": 4354,
      "è¥¿æ´ĭ": 4355,
      "åĪĨéĲĺ": 4356,
      "è©¹": 4357,
      "æĶ¿é»¨": 4358,
      "æµ·å²¸": 4359,
      "å°ıåŃ¦": 4360,
      "æıĲåĲį": 4361,
      "æĴŀ": 4362,
      "æĶ¹ä¸º": 4363,
      "çŁ¥éģĵ": 4364,
      "çĭĦ": 4365,
      "æ¨Ĥåľĺ": 4366,
      "éĦ°": 4367,
      "åį°å°¼": 4368,
      "äº§åĵģ": 4369,
      "ist": 4370,
      "æĹłæ³ķ": 4371,
      "æ¸¸æ³³": 4372,
      "è§Ģçľ¾": 4373,
      "72": 4374,
      "Ġb": 4375,
      "å¾Ħ": 4376,
      "æľīåħ³": 4377,
      "æľĪåĪĿ": 4378,
      "æłª": 4379,
      "åīĽ": 4380,
      "ç¬¬åħŃ": 4381,
      "å¸Ĥéİ®": 4382,
      "çĲĨè®º": 4383,
      "éĩĮäºļ": 4384,
      "ä¸īä¸ª": 4385,
      "æł¼çĪ¾": 4386,
      "æĦ¿": 4387,
      "è²¿": 4388,
      "æŃ£å¤ļéĿ¢é«Ķ": 4389,
      "èĳĽ": 4390,
      "æ°´å¹³": 4391,
      "è®¾æľī": 4392,
      "èĸ©åĲī": 4393,
      "å§Ĩæĸ¯": 4394,
      "ä¸Ĭæµ·å¸Ĥ": 4395,
      "åĩºçĶŁæĸ¼": 4396,
      "åį¢æ£®åł¡": 4397,
      "èĬ¬çī¹": 4398,
      "è²łè²¬ç®¡è½Ħ": 4399,
      "éĽľèªĮ": 4400,
      "æ±Łèĭıçľģ": 4401,
      "å¹´å¤ıåŃ£å¥¥æŀĹåĮ¹åħĭè¿ĲåĬ¨ä¼ļ": 4402,
      "qu": 4403,
      "ï¼ĮãĢĮ": 4404,
      "åŃķ": 4405,
      "å¸ģ": 4406,
      "æ²ī": 4407,
      "æĸ¼æĺ¯": 4408,
      "æİī": 4409,
      "éĥ¨éĸĢ": 4410,
      "è§¸": 4411,
      "å¤ļè¥¿": 4412,
      "ç¶ľ": 4413,
      "åº¦çļĦ": 4414,
      "äºĭåĬ¡": 4415,
      "èªī": 4416,
      "äºĮå¹´": 4417,
      "æ²»çĻĤ": 4418,
      "ä¸İçĳŀå£«": 4419,
      "å°įåħ¶": 4420,
      "è«¸": 4421,
      "å²¡": 4422,
      "æĶ¹è®Ĭ": 4423,
      "åĨħå®¹": 4424,
      "æĽ´æĸ°": 4425,
      "èĳĹä½ľ": 4426,
      "ä½ĽæķĻ": 4427,
      "rom": 4428,
      "äºļéĢŁèĲ¥": 4429,
      "åŁºç¡Ģ": 4430,
      "ST": 4431,
      "å¤¢": 4432,
      "çī§": 4433,
      "éģ£": 4434,
      "å¤§ä¼ļ": 4435,
      "å¤§éģĵ": 4436,
      "çĲ³": 4437,
      "å»¢": 4438,
      "çī¹æ®Ĭ": 4439,
      "ä¸įå°ĳ": 4440,
      "åĪĨéħį": 4441,
      "å¾·æĭī": 4442,
      "å·¥åħ·": 4443,
      "éĢļä¿¡": 4444,
      "æ¡Ĥ": 4445,
      "æ¥ļ": 4446,
      "çĽ¸ä¼¼": 4447,
      "åħĪåĲİ": 4448,
      "æŃ¦æ±ī": 4449,
      "ity": 4450,
      "éłĲè¨Ī": 4451,
      "åıĤåĬłäºĨ": 4452,
      "å·¡éģĬ": 4453,
      "ive": 4454,
      "éģ¿åħį": 4455,
      "çº½çº¦": 4456,
      "AP": 4457,
      "Ġin": 4458,
      "ï¼Ł": 4459,
      "ä»Ļ": 4460,
      "éĢĤ": 4461,
      "åĴĮåħ¶ä»ĸ": 4462,
      "çĽ¤": 4463,
      "è¡Įä¸º": 4464,
      "ä¾į": 4465,
      "åŃĲçļĦ": 4466,
      "è¾½": 4467,
      "æµ·åŁŁ": 4468,
      "å°¼æĸ¯": 4469,
      "ç±³çĪ¾": 4470,
      "çģ½": 4471,
      "çĲĥåŃ£": 4472,
      "ç®±": 4473,
      "åŁºçĿ£": 4474,
      "è°Ī": 4475,
      "åŀĭçļĦ": 4476,
      "æĶ¹åĸĦ": 4477,
      "çĨŁ": 4478,
      "æĴŃæĶ¾": 4479,
      "1984": 4480,
      "çĩķ": 4481,
      "å®ŀéªĮ": 4482,
      "åĬŀåħ¬": 4483,
      "åŁ·è¡Į": 4484,
      "éĭ¼": 4485,
      "æ³¢å£«é¡¿": 4486,
      "çĬ¹å¤ª": 4487,
      "08": 4488,
      "99": 4489,
      "NG": 4490,
      "ok": 4491,
      "ä¸ŀ": 4492,
      "åľ³": 4493,
      "éģį": 4494,
      "å¼¼": 4495,
      "æĭĵ": 4496,
      "èµĸ": 4497,
      "ä¾¯": 4498,
      "éĥ¨éĺŁ": 4499,
      "å°Ķæĸ¯": 4500,
      "æıĴ": 4501,
      "çĲĥéļĬ": 4502,
      "ç®Ń": 4503,
      "çłĤ": 4504,
      "æ®ĺ": 4505,
      "ä¸ľåĮĹ": 4506,
      "ç¿Į": 4507,
      "ç¿ł": 4508,
      "åı¯ä»¥åľ¨": 4509,
      "è®¾ç«ĭ": 4510,
      "æĶ¿åºľçļĦ": 4511,
      "2025": 4512,
      "çĻ½èī²": 4513,
      "è§£æķ£": 4514,
      "1956": 4515,
      "å±ŀçļĦ": 4516,
      "è³ĩè¨Ĭ": 4517,
      "æĹ©å¹´": 4518,
      "ç®Ĺæ³ķ": 4519,
      "çĪ¶æ¯į": 4520,
      "æªĶ": 4521,
      "é£Ľè¡Į": 4522,
      "è¡ĽçĶŁ": 4523,
      "uture": 4524,
      "å´ĩç¦İ": 4525,
      "ç§ĳçļĦåħ¶ä¸Ńä¸Ģ": 4526,
      "åľĸæĽ¸é¤¨": 4527,
      ")ãĢĤ": 4528,
      "66": 4529,
      "II": 4530,
      "ric": 4531,
      "Ã¨": 4532,
      "å±ł": 4533,
      "æī¬": 4534,
      "ç»¿": 4535,
      "åīĤ": 4536,
      "åĭĭ": 4537,
      "å·¥æ¥Ń": 4538,
      "èª¤": 4539,
      "è¡¨çı¾": 4540,
      "åīįçļĦ": 4541,
      "çī©é«Ķ": 4542,
      "æĹ¶çļĦ": 4543,
      "é©ħ": 4544,
      "å¨ĺ": 4545,
      "éľ¸": 4546,
      "ont": 4547,
      "è¯¥åĽ½": 4548,
      "ä¿ĿçķĻ": 4549,
      "æ¯ıä¸ª": 4550,
      "å¥¥åľ°åĪ©": 4551,
      "èĸ©çĪ¾": 4552,
      "åĭĴèĸ©åĲī": 4553,
      "éĸĢå¤ļè¥¿": 4554,
      "all": 4555,
      "1940": 4556,
      "å®ŀéĻħ": 4557,
      "çº³ç²¹": 4558,
      "è«¾ç¸£çļĦä¸ĢåĢĭéĿŀå»ºåĪ¶åľ°åįĢ": 4559,
      "çĮ®": 4560,
      "ĠIn": 4561,
      "åįļçī©é¤¨": 4562,
      "å¥§åĪ©èĬ¬çī¹": 4563,
      "\"ï¼ī": 4564,
      "300": 4565,
      "AC": 4566,
      "å¶": 4567,
      "çļĦæĸ¹å¼ı": 4568,
      "å¹´åºķ": 4569,
      "æĹ¨": 4570,
      "äººæ¬Ĭ": 4571,
      "éļĲ": 4572,
      "ä¸įè¶³": 4573,
      "åĪĨç±»": 4574,
      "æľĥåľ¨": 4575,
      "ç±Į": 4576,
      "å¸Ĥåľº": 4577,
      "åŃ¸ä½į": 4578,
      "å¤ĸçļĦ": 4579,
      "æīĭæľº": 4580,
      "æīĭæ§į": 4581,
      "èŃ°å¸Ń": 4582,
      "åıįå¯¹": 4583,
      "æ¯ıå¤©": 4584,
      "çĥ·": 4585,
      "æĺ¯ä¸Ģç¨®": 4586,
      "èĸ©åħĭ": 4587,
      "å¨ģå»ī": 4588,
      "åı¯èĥ½æĺ¯": 4589,
      "å¹¿ä¸ľ": 4590,
      "ç§»åĬ¨": 4591,
      "è®°èĢħ": 4592,
      "åľ°åĮºçļĦ": 4593,
      "é£Łåĵģ": 4594,
      "åĢĻéģ¸": 4595,
      "éĩįè¦ģçļĦ": 4596,
      "éĽĨä¸ŃèĲ¥": 4597,
      "è¡Ŀçªģ": 4598,
      "èİ±èĮµçľģ": 4599,
      "Ġ11": 4600,
      "è¿´": 4601,
      "åľ°çĲĥ": 4602,
      "å¯¬": 4603,
      "çĶ¨éĢĶ": 4604,
      "åĬłä¸Ĭ": 4605,
      "æ±Ģ": 4606,
      "çĲĨå·¥": 4607,
      "äºĭæķħ": 4608,
      "èĩ³ä»Ĭ": 4609,
      "å°ıçļĦ": 4610,
      "åħĥæľĿ": 4611,
      "èĹī": 4612,
      "æ»ķ": 4613,
      "è§£éĩĭ": 4614,
      "æĪĺæĸĹ": 4615,
      "é¤Ĳ": 4616,
      "ç»Łæ²»": 4617,
      "æ½Ľ": 4618,
      "è©ķåĥ¹": 4619,
      "èĺĩèģ¯": 4620,
      "éĢĢä¼ĳ": 4621,
      "èĢ¶å¤«": 4622,
      "äºĳåįĹçľģ": 4623,
      "æ®ĸæ°ĳåľ°": 4624,
      "ç»¼åĲĪ": 4625,
      "53": 4626,
      "future": 4627,
      "if": 4628,
      "è¡¡": 4629,
      "æľīçļĦ": 4630,
      "è®¢": 4631,
      "åĽ½çİĭ": 4632,
      "è¯¾": 4633,
      "ç¬Ķ": 4634,
      "æĬ«": 4635,
      "åĪĨä¸º": 4636,
      "æ¬¢": 4637,
      "èªķ": 4638,
      "å»ºèŃ°": 4639,
      "ä¹Łåľ¨": 4640,
      "ç·£": 4641,
      "æĥ¡": 4642,
      "åı¸å®ĺ": 4643,
      "æİ¥è¿ĳ": 4644,
      "æ²³åĮĹ": 4645,
      "å±ķéĸĭ": 4646,
      "éº¼": 4647,
      "åĲĦç¨®": 4648,
      "çĬ¬": 4649,
      "å®¢è¿Ĳ": 4650,
      "è®®åĳĺ": 4651,
      "éĺ²æļ´": 4652,
      "æĵĬæķĹ": 4653,
      "éļ¨èĳĹ": 4654,
      "æĹĹä¸ĭ": 4655,
      "igh": 4656,
      "ç¦ģæŃ¢": 4657,
      "éĥĳå·ŀ": 4658,
      "æĵįä½ľ": 4659,
      "éĻįéĽ¨éĩı": 4660,
      "78": 4661,
      "IC": 4662,
      "our": 4663,
      "ĠçļĦ": 4664,
      "å®ı": 4665,
      "åĬĳ": 4666,
      "è¿ħ": 4667,
      "å¤§åĮº": 4668,
      "æķµ": 4669,
      "æĻ¶": 4670,
      "åľĭçİĭ": 4671,
      "å¯Ħ": 4672,
      "çķª": 4673,
      "åĭŁ": 4674,
      "åĪĨéĴŁ": 4675,
      "å·ŀè²łè²¬ç®¡è½Ħ": 4676,
      "å¤ļå¹´": 4677,
      "éłģ": 4678,
      "è´¡": 4679,
      "ç§ĳçī¹": 4680,
      "éĢļéģĵ": 4681,
      "çī©ç¨®": 4682,
      "èĻ½": 4683,
      "èĭ±éĽĦ": 4684,
      "åĮĸåĲĪçī©": 4685,
      "åĸĢ": 4686,
      "å¡«": 4687,
      "éĩįåºĨ": 4688,
      "è»įéļĬ": 4689,
      "é¦¬ä¾Ĩ": 4690,
      "åĽŀæŃ¸": 4691,
      "æ»ħ": 4692,
      "çĥŁ": 4693,
      "æĶ¯æı´": 4694,
      "1981": 4695,
      "å®ĥçļĦ": 4696,
      "åĵĪå°Ķ": 4697,
      "åĲĦåľ°": 4698,
      "åĬ©çĲĨ": 4699,
      "éªĳ": 4700,
      "æĦŁåĪ°": 4701,
      "ille": 4702,
      "åĨ³èµĽ": 4703,
      "éĨ«çĻĤ": 4704,
      "éĢĢå½¹": 4705,
      "æ³¨æĦı": 4706,
      "èĪŀåı°": 4707,
      "æ¶īåıĬ": 4708,
      "éħĴåºĹ": 4709,
      "èĻİå°¾": 4710,
      "è®¿éĹ®": 4711,
      "æĿĤå¿Ĺ": 4712,
      "æ¾³å¤§åĪ©äºļ": 4713,
      "å¸ĸæľ¨": 4714,
      "èı²å¾ĭè³ĵ": 4715,
      "86": 4716,
      "äººä»¬": 4717,
      "åľ¨ä¸Ģ": 4718,
      "âĢ¦": 4719,
      "åĲįåĸ®": 4720,
      "çĶ¨çļĦ": 4721,
      "è¢«è¿«": 4722,
      "ä¹ĭåŃĲ": 4723,
      "çŃĨ": 4724,
      "è»Į": 4725,
      "çĻ¼åĶ®": 4726,
      "çŁ¿": 4727,
      "æ¬¡å¹´": 4728,
      "æŃ£å¸¸": 4729,
      "éĵľ": 4730,
      "çĥ¯": 4731,
      "ç¼©": 4732,
      "1975": 4733,
      "è®®ä¼ļ": 4734,
      "1948": 4735,
      "åľĴåįĢ": 4736,
      "æĲ¬": 4737,
      "ç´¢å§Ĩ": 4738,
      "æ½Ķ": 4739,
      "åħ¸ç¦®": 4740,
      "æ·±åľ³": 4741,
      "1935": 4742,
      "çĩŁéģĭ": 4743,
      "æĶ»æĵĬ": 4744,
      "èĮĥåĽ´": 4745,
      "èĪŀè¹": 4746,
      "ä¸Ńåħ±ä¸Ńå¤®": 4747,
      "èĦĤé¯īå±¬": 4748,
      "èĪŀè¹Ī": 4749,
      "å¤ķ": 4750,
      "åįĵ": 4751,
      "å¾ª": 4752,
      "åľ¨åħ¶": 4753,
      "ãĢģâĢľ": 4754,
      "éĻ©": 4755,
      "æĪĲç¸¾": 4756,
      "ç´Ļ": 4757,
      "æĢª": 4758,
      "æ¬£": 4759,
      "é«ĺæŀ¶": 4760,
      "åįĹéĿŀ": 4761,
      "åĲĪä½µ": 4762,
      "ä¸īåı¸å®ĺ": 4763,
      "çŁ©": 4764,
      "åĮĸçļĦ": 4765,
      "èĤ¥": 4766,
      "åħĥèĢģ": 4767,
      "é¦ĸéĥ½": 4768,
      "çĽ¸æ¯Ķ": 4769,
      "èĹ©": 4770,
      "ond": 4771,
      "è¾¾åĪ°": 4772,
      "1978": 4773,
      "å·¥ç¨ĭéĻ¢": 4774,
      "ä¹Ŀé¾į": 4775,
      "èĢĥæħ®": 4776,
      "æİĪäºĪ": 4777,
      "èĽĩ": 4778,
      "æ²ĥåħĭ": 4779,
      "æ°ĳä¸»æ´¾": 4780,
      "åĬ³åĬ¨": 4781,
      "ç¦»å¼Ģ": 4782,
      "æī¾åĪ°": 4783,
      "éłĴçįİ": 4784,
      "éĬĢè¡Į": 4785,
      "è¿·ä½ł": 4786,
      "ç¾½çĲĥåħ¬éĸĭè³½": 4787,
      "Mar": 4788,
      "ost": 4789,
      "å¹¹": 4790,
      "ä»°": 4791,
      "å¹´åĪ°": 4792,
      "è¿Ŀ": 4793,
      "å¥İ": 4794,
      "åĨĴ": 4795,
      "ä»ĸæĺ¯": 4796,
      "ä»ĸæĽ¾": 4797,
      "æ¯ģ": 4798,
      "åĲįç§°": 4799,
      "çİ»": 4800,
      "å®¶äºº": 4801,
      "ä¸ĭèİ±èĮµçľģ": 4802,
      "éŁ©": 4803,
      "æł¼èĺŃ": 4804,
      "æ¯Ķäºļ": 4805,
      "æľªä¾Ĩ": 4806,
      "æ©Łåł´": 4807,
      "èģ¯è³½": 4808,
      "ç»´äºļ": 4809,
      "çµ±æ²»": 4810,
      "ç¢³": 4811,
      "èħ³": 4812,
      "å¹³æĸ¹ç±³": 4813,
      "åħ«å¹´": 4814,
      "å¼ĹéĩĮ": 4815,
      "è¿Ľè¡ĮäºĨ": 4816,
      "çľ¾èŃ°éĻ¢": 4817,
      "æ±ºè³½": 4818,
      "è½¨çĶµè½¦": 4819,
      "è·ĿéĽ¢": 4820,
      "è²¿æĺĵ": 4821,
      "éī": 4822,
      "ä¸Ģæ¨£": 4823,
      "ä¹°": 4824,
      "éģĤ": 4825,
      "æĭŁ": 4826,
      "è¡Įçľģ": 4827,
      "çī¹å®ļ": 4828,
      "è¥¿åĵ¥": 4829,
      "æ³ķèĴĤ": 4830,
      "å£ĩ": 4831,
      "é¡ı": 4832,
      "è¡¨éģĶ": 4833,
      "è´§": 4834,
      "éĻ¢éķ¿": 4835,
      "åĽłèĢĮ": 4836,
      "çĽ®æ¨Ļ": 4837,
      "è¼Ľ": 4838,
      "åİŁåŃĲ": 4839,
      "æº¶": 4840,
      "éĵ¾": 4841,
      "å¦Ĥä½ķ": 4842,
      "æľªæĿ¥": 4843,
      "æł¡éķ¿": 4844,
      "åħ¬åı¸çļĦ": 4845,
      "éģĶåĪ°": 4846,
      "é¢¨æł¼": 4847,
      "æ²³åįĹ": 4848,
      "çĭĹ": 4849,
      "å±ķç¤º": 4850,
      "åħ©äºº": 4851,
      "åĬĩæĥħ": 4852,
      "è§Ĩé¢ĳ": 4853,
      "1976": 4854,
      "çº¦ç¿°": 4855,
      "èİ·å¾ĹäºĨ": 4856,
      "ä¹Ŀå¹´": 4857,
      "è£ĿçĶ²": 4858,
      "éĢĲæ¼¸": 4859,
      "95": 4860,
      "SM": 4861,
      "br": 4862,
      "ik": 4863,
      "å¤·": 4864,
      "åŃĿ": 4865,
      "æľĪåľ¨": 4866,
      "éĺģ": 4867,
      "çº¸": 4868,
      "æ¯Ģ": 4869,
      "åĳĤ": 4870,
      "å§ļ": 4871,
      "åħĭèĺŃ": 4872,
      "å¤ļåĢĭ": 4873,
      "å¤ļä¸ª": 4874,
      "å£½": 4875,
      "å¾ĮçļĦ": 4876,
      "æµ·å¤ĸ": 4877,
      "é¡¾": 4878,
      "åĲĪæ³ķ": 4879,
      "æŁ´": 4880,
      "çģŃ": 4881,
      "è²¼": 4882,
      "ï¼ļï¼īï¼Į": 4883,
      "åħĥå¹´": 4884,
      "è¼Ķ": 4885,
      "åĬĽéĩı": 4886,
      "åĤħ": 4887,
      "æŀĹæĸ¯": 4888,
      "äº¤æµģ": 4889,
      "ä¸ŃåĽ½ç§ĳåŃ¦éĻ¢": 4890,
      "æ»¨": 4891,
      "æ³¢æĸ¯": 4892,
      "åĳ½ä»¤": 4893,
      "æľĿé®®": 4894,
      "æ£®æŀĹ": 4895,
      "çĩĪ": 4896,
      "ç¡ķ": 4897,
      "å©Ĩ": 4898,
      "åįķæĽ²": 4899,
      "æ¹ĸåįĹ": 4900,
      "åĪĽä½ľ": 4901,
      "åĺīç¾©": 4902,
      "åħĴåŃĲ": 4903,
      "çĪŃèŃ°": 4904,
      "å¾®ç²Ĵ": 4905,
      "èľĤ": 4906,
      "èľľ": 4907,
      "å°ĩåħ¶åįĩæł¼çĤºçĨ±å¸¶é¢¨æļ´": 4908,
      "å°ĩåħ¶åįĩæł¼çĤºçĨ±å¸¶ä½İæ°£å£ĵ": 4909,
      "é«ĺéĢŁåħ¬è·¯": 4910,
      "ç¼ºä¹ı": 4911,
      "ç¬¬äºĮæ¬¡ä¸ĸçķĮå¤§": 4912,
      "åĢĻéģ¸äºº": 4913,
      "å·¥ç¨ĭéĻ¢éĻ¢å£«": 4914,
      "Al": 4915,
      "Âł": 4916,
      "Ġde": 4917,
      "ä¸Ļ": 4918,
      "æĸ¡": 4919,
      "åĲ»": 4920,
      "ä¸Ģåº¦": 4921,
      "éĢĨ": 4922,
      "è¡į": 4923,
      "ç»ĳ": 4924,
      "ç´§": 4925,
      "éĥ¨çļĦ": 4926,
      "çİĦ": 4927,
      "æĸ¹çļĦ": 4928,
      "éĹŃ": 4929,
      "éĤ¨": 4930,
      "ä»£çĲĨ": 4931,
      "ind": 4932,
      "å¸¸è¦ĭ": 4933,
      "åį¡çĪ¾": 4934,
      "å¦ĤæŃ¤": 4935,
      "ort": 4936,
      "è®¾æĸ½": 4937,
      "çĥ§": 4938,
      "è§£åĨ³": 4939,
      "æħĪ": 4940,
      "æĶ¶åħ¥": 4941,
      "å¯¦éļĽ": 4942,
      "çĻ»éĻ¸": 4943,
      "é²ľ": 4944,
      "æ¢Ŀä¾ĭ": 4945,
      "æĿ¡ä»¶": 4946,
      "é§Ľ": 4947,
      "ä»ĸä»¬çļĦ": 4948,
      "éĽħåĬł": 4949,
      "é³³": 4950,
      "ç¤¾ä¼ļåħļ": 4951,
      "çł´å£ŀ": 4952,
      "æŁĲäºĽ": 4953,
      "èį·èĺŃ": 4954,
      "å°¤åħ¶": 4955,
      "äº¨åĪ©": 4956,
      "ç´¢å§Ĩå¥Ī": 4957,
      "%ï¼Į": 4958,
      "AS": 4959,
      "ach": 4960,
      "åĹ": 4961,
      "Ġ1": 4962,
      "ä¸Ńæľī": 4963,
      "æĹ¥æŃ£å¼ı": 4964,
      "åĲįåŃĹ": 4965,
      "ä¸įæľĥ": 4966,
      "æľ¬èº«": 4967,
      "æľ¬èī¦": 4968,
      "é¢ģ": 4969,
      "è¾ŀ": 4970,
      "ä¸īè§Ĵ": 4971,
      "æ¼Ķå¥ı": 4972,
      "å®īå¾½": 4973,
      "éĽĨèĬĤçĽ®": 4974,
      "ï¼Īï¼īãĢĤ": 4975,
      "æķ¸éĩı": 4976,
      "ç¶ĵçĩŁ": 4977,
      "èºį": 4978,
      "æ¯ıåĢĭ": 4979,
      "çİ°åľ¨": 4980,
      "ç²Ĺ": 4981,
      "éĮ«": 4982,
      "å°ĳå¥³": 4983,
      "åł±å°İ": 4984,
      "è®®éĻ¢": 4985,
      "ä½įäºİä¸Ńåįİäººæ°ĳåħ±åĴĮåĽ½": 4986,
      "æ°ĳä¸»é»¨": 4987,
      "çħ§çīĩ": 4988,
      "ç£·": 4989,
      "å¹¾ä½ķ": 4990,
      "èŁ²": 4991,
      "èĥ½å¤Ł": 4992,
      "æ°§åĮĸ": 4993,
      "éĩĿå°į": 4994,
      "åĩıå°ĳ": 4995,
      "94": 4996,
      "AG": 4997,
      "çļĦæķħäºĭ": 4998,
      "å¹´æĭħä»»": 4999,
      "éĢĴ": 5000,
      "åºļ": 5001,
      "æľĪçļĦ": 5002,
      "å¤§æ©ĭ": 5003,
      "èĪĴ": 5004,
      "å¯¨": 5005,
      "å½°": 5006,
      "åī²": 5007,
      "ç´¯": 5008,
      "ç¬¬åħ«": 5009,
      "ä¸įå¾Ĺ": 5010,
      "åĪĨè§£": 5011,
      "æ³ķåºŃ": 5012,
      "æĮĤ": 5013,
      "è·¯ç«Ļ": 5014,
      "ä¸īä¸ĸ": 5015,
      "å°ıèªª": 5016,
      "è²¢": 5017,
      "åħ¨èĭ±": 5018,
      "æ®·": 5019,
      "ç¨ĭåº¦": 5020,
      "ç¶ĵéģİ": 5021,
      "è¨ŃåĤĻ": 5022,
      "åĦĺ": 5023,
      "å®£åĤ³": 5024,
      "èĲ¨åħĭ": 5025,
      "å¸ĮçĪ¾": 5026,
      "æİĴè¡Į": 5027,
      "åıªèĥ½": 5028,
      "éĴ¢": 5029,
      "1967": 5030,
      "1968": 5031,
      "å¤±åİ»": 5032,
      "å¼·çĥĪ": 5033,
      "ä»ĸåĢĳçļĦ": 5034,
      "éģĭåĭķåĵ¡": 5035,
      "ä¼ģæ¥Ń": 5036,
      "æĺĨæĺİ": 5037,
      "ç«ĭæ³ķæľĥ": 5038,
      "å¢¨è¥¿åĵ¥": 5039,
      "..": 5040,
      "ph": 5041,
      "ug": 5042,
      "Ġand": 5043,
      "å¹´åĴĮ": 5044,
      "åį¿": 5045,
      "å°ī": 5046,
      "æľīè½¨çĶµè½¦": 5047,
      "å¤§ç´Ħ": 5048,
      "æī¶": 5049,
      "çī¹å¾µ": 5050,
      "ä½ľåĩº": 5051,
      "éļ¶": 5052,
      "ç¬¬ä¹Ŀ": 5053,
      "ä¸įåı¯": 5054,
      "è½Ł": 5055,
      "åĪ©æĸ¯": 5056,
      "é«ĺçº§": 5057,
      "å®ļä¹ī": 5058,
      "çĽ®çļĦ": 5059,
      "æıĲçĲ´": 5060,
      "èī²çļĦ": 5061,
      "æĻ®èĲĬ": 5062,
      "èĺĭ": 5063,
      "æ·ĺ": 5064,
      "é¦¬æĸ¯": 5065,
      "çŁ¥åĲį": 5066,
      "å°Ĩåħ¶": 5067,
      "ä½¿çĶ¨çļĦ": 5068,
      "åķĨåł´": 5069,
      "ä½ıå®ħ": 5070,
      "åħļå§Ķ": 5071,
      "1952": 5072,
      "éĢ£çºĮ": 5073,
      "æľĹä»Ģ": 5074,
      "è®°å½ķ": 5075,
      "èĽĽ": 5076,
      "åŁ·å°İ": 5077,
      "åĬªæĸ¯": 5078,
      "ä¹ĭéĹ´çļĦ": 5079,
      "ç²ĴåŃĲ": 5080,
      "æİ¥å£¤çļĦ": 5081,
      "ç¡ķå£«": 5082,
      "73": 5083,
      "Le": 5084,
      "SE": 5085,
      "ob": 5086,
      "åµ": 5087,
      "å¹´éĸĭå§ĭ": 5088,
      "å¹´è¼ķ": 5089,
      "æ²Ī": 5090,
      "çĲ¦": 5091,
      "åĭĩ": 5092,
      "çµ¡": 5093,
      "æľ¬åľ°": 5094,
      "çĻ¼åĩº": 5095,
      "æŃ¤åĲİ": 5096,
      "æīĢåľ¨": 5097,
      "æĹ¶ä»£": 5098,
      "èĻ¹": 5099,
      "èĬ³": 5100,
      "ç¦ıå»º": 5101,
      "æİ¥æĶ¶": 5102,
      "éģİåİ»": 5103,
      "ä¸ŃåĽ½å·¥ç¨ĭéĻ¢éĻ¢å£«": 5104,
      "å®ĺåĵ¡": 5105,
      "è¨Īç®Ĺ": 5106,
      "end": 5107,
      "éĽ·æĸ¯": 5108,
      "æ¾İ": 5109,
      "èĲ¨æľĹä»Ģ": 5110,
      "æĪĲç«ĭçļĦ": 5111,
      "åĪĽå»º": 5112,
      "æī¿èªį": 5113,
      "å»¶ä¼¸": 5114,
      "æĻºèĥ½": 5115,
      "ect": 5116,
      "è¨ªåķı": 5117,
      "å¤ĸäº¤éĥ¨": 5118,
      "æ¸Ľå°ĳ": 5119,
      "æ¯ıå¹´å¹³åĿĩ": 5120,
      "åħģè®¸": 5121,
      "è¢Ńåĩ»": 5122,
      "èĴĻçī¹éĽ·": 5123,
      "400": 5124,
      "76": 5125,
      "98": 5126,
      "MV": 5127,
      "æĸĳ": 5128,
      "å¹´ä»»": 5129,
      "åį´": 5130,
      "åĴĮä½ł": 5131,
      "åĽ½åĬ¡": 5132,
      "åĭ³": 5133,
      "ç¨³": 5134,
      "æľĥèŃ°": 5135,
      "ä¸īåĢĭ": 5136,
      "è´¸": 5137,
      "è´º": 5138,
      "åĲİçļĦ": 5139,
      "æŁĶ": 5140,
      "åĮĸå·¥": 5141,
      "åı¸æ³ķ": 5142,
      "æĿ¥æºĲ": 5143,
      "çı¾ä»£": 5144,
      "é©¬åħĭ": 5145,
      "åĽŀæĩī": 5146,
      "åľºæ¯ĶèµĽ": 5147,
      "éĹľæ³¨": 5148,
      "çĵ¦ç´į": 5149,
      "ç¢±": 5150,
      "å®Įå·¥": 5151,
      "åīĩæĺ¯": 5152,
      "æĬķèµĦ": 5153,
      "åĨįåº¦": 5154,
      "1954": 5155,
      "1959": 5156,
      "åģľè½¦": 5157,
      "è¿ĺæľī": 5158,
      "æĨ¶": 5159,
      "ä¼įå¾·": 5160,
      "è¯Ħè®º": 5161,
      "è¯ģæĺİ": 5162,
      "çĪĨçĻ¼": 5163,
      "èı¯çĽĽéłĵç¸£": 5164,
      "æģĲæĢ": 5165,
      "èª²ç¨ĭ": 5166,
      "ç©©å®ļ": 5167,
      "è¿ħéĢŁ": 5168,
      "pan": 5169,
      "ud": 5170,
      "ï¼Įï¼īï¼Į": 5171,
      "åĲ¹": 5172,
      "ä¼Ĳ": 5173,
      "åľ°ä½į": 5174,
      "æµ©": 5175,
      "è¨º": 5176,
      "ä¸įæĺİ": 5177,
      "åłĨ": 5178,
      "å¤ļåĲį": 5179,
      "æĸ°å¹´": 5180,
      "å»ºè¨Ń": 5181,
      "ä¸īåįģ": 5182,
      "ç§ĳå¤«": 5183,
      "æŃ¤æ¬¡": 5184,
      "âĢĿãĢģâĢľ": 5185,
      "åĮºçļĦ": 5186,
      "æ£Ł": 5187,
      "éĽĨæĪĲ": 5188,
      "åŁİåĮº": 5189,
      "çĵ¦å°Ķ": 5190,
      "ä¸¤äºº": 5191,
      "åŁĥå°Ķ": 5192,
      "å·¥ä½ľå®¤": 5193,
      "1977": 5194,
      "1941": 5195,
      "å®ŀæĸ½": 5196,
      "éĻ¸è»į": 5197,
      "è³ĩæł¼": 5198,
      "æĹłéĶ¡": 5199,
      "ç¼ĸè¾ĳ": 5200,
      "1939": 5201,
      "åħĴç«¥": 5202,
      "æł¸å¿ĥ": 5203,
      "æĭįæĳĦ": 5204,
      "æ¥µé»ŀ": 5205,
      "é«ĺéĢŁéĵģè·¯": 5206,
      "çļĦæĥħæ³ģ": 5207,
      "å±±ä¸ľçľģ": 5208,
      "ç·ĬæĢ¥": 5209,
      "åĦĺç®¡": 5210,
      "61": 5211,
      "AN": 5212,
      "La": 5213,
      "ran": 5214,
      "sh": 5215,
      "çļĦæĦı": 5216,
      "åĪ¸": 5217,
      "å¹´çĶ±": 5218,
      "å¾¹": 5219,
      "åľ¨ä¸Ń": 5220,
      "åĩŃ": 5221,
      "çĽ¾": 5222,
      "ç¨¿": 5223,
      "èĭĹ": 5224,
      "è¾¯": 5225,
      "å¹³ç«ł": 5226,
      "æµ·æ»©": 5227,
      "èªł": 5228,
      "å¾Ĺä»¥": 5229,
      "ç¥¥": 5230,
      "ç¥¿": 5231,
      "çģ¾": 5232,
      "æ¡Ĩ": 5233,
      "è²ĵ": 5234,
      "å®īå¾·": 5235,
      "æķĻå¸«": 5236,
      "æķĻåłĤ": 5237,
      "æ¸¯éĲµ": 5238,
      "åį¡å°Ķ": 5239,
      "ç»ıåİĨ": 5240,
      "çıŃçº§": 5241,
      "æ¨ĤéļĬ": 5242,
      "åĲĦç§į": 5243,
      "èĳĹåĲį": 5244,
      "1953": 5245,
      "çĻ»ä¸Ĭ": 5246,
      "éĻįä½İ": 5247,
      "é¢ĨåŁŁ": 5248,
      "åľ£è®©": 5249,
      "éļıçĿĢ": 5250,
      "ä½©ç§ĳçī¹": 5251,
      "çĶ³è«ĭ": 5252,
      "ç°¡ç¨±": 5253,
      "é¼İ": 5254,
      "ç§ĺå¯Ĩ": 5255,
      "çļĦä¸Ģä¸ªå¸Ĥéķĩ": 5256,
      "éļİæ®µ": 5257,
      "æģ¢å¾©": 5258,
      "è¨İè«ĸ": 5259,
      "æĮĳæĪ°": 5260,
      "é¦¬éĩĮæĺĤ": 5261,
      "éĽħåĬłéģĶ": 5262,
      "æģĲæĢĸ": 5263,
      "92": 5264,
      "ng": 5265,
      "çļĦäºĭ": 5266,
      "çļĦç¬¬äºĮ": 5267,
      "çļĦä½ľåĵģ": 5268,
      "åĲ§": 5269,
      "åĲĥ": 5270,
      "çĶ¸": 5271,
      "è¡Ķ": 5272,
      "çĤ³": 5273,
      "æĺ¯ç¾İåĽ½": 5274,
      "çĤºä¸»": 5275,
      "çĽ¡": 5276,
      "ç§Ĵ": 5277,
      "èĪĮ": 5278,
      "åī©": 5279,
      "ä¸Ĭå¸Ĥ": 5280,
      "æĢĢ": 5281,
      "è§Ī": 5282,
      "æ³ķå®ĺ": 5283,
      "æ°ĳéĸĵ": 5284,
      "è³Ģ": 5285,
      "ç¶«": 5286,
      "æĭīå§Ĩ": 5287,
      "éĢļçŁ¥": 5288,
      "æ¬¡åĪĹè½¦": 5289,
      "å®īä¸ľ": 5290,
      "ç¾İåľĭæµ·è»į": 5291,
      "åŁºäºİ": 5292,
      "åĪ¶éĢł": 5293,
      "é¦ĸå¸Ń": 5294,
      "å¹¶äºİ": 5295,
      "éºŁ": 5296,
      "åŃĹæ¯į": 5297,
      "éĮ¯": 5298,
      "æĶ¿æ²»å®¶": 5299,
      "åį°åĪ·": 5300,
      "ich": 5301,
      "1955": 5302,
      "åĨłçĬ¶": 5303,
      "ä¸Ńåľĭå¤§éĻ¸": 5304,
      "å´İ": 5305,
      "è®ĬåĮĸ": 5306,
      "ç®¡çĲĨå±Ģ": 5307,
      "çĶ·åŃĲç¯®çĲĥ": 5308,
      "å¿ħé¡»": 5309,
      "èŀº": 5310,
      "è§£æĶ¾åĨĽ": 5311,
      "æĿŃå·ŀ": 5312,
      "æĸĩçī©ä¿ĿæĬ¤": 5313,
      "ä¸Īå¤«": 5314,
      "é»ĳé¾Ļæ±Ł": 5315,
      "æ¯ıå¹´å¹³åĿĩéĻįéĽ¨éĩı": 5316,
      "åĨłçĬ¶çĹħæ¯Ĵ": 5317,
      "01": 5318,
      "BC": 5319,
      "DE": 5320,
      "io": 5321,
      "çļĦå¤ĸ": 5322,
      "äººæķ¸": 5323,
      "æľīäºĽ": 5324,
      "æĹ¥æľŁ": 5325,
      "å¤§æľĥ": 5326,
      "å¤§è¥¿æ´ĭ": 5327,
      "ä¼Ł": 5328,
      "å¥ĳ": 5329,
      "åĨĮ": 5330,
      "çĲī": 5331,
      "èĥ¸": 5332,
      "èĭ¯": 5333,
      "è¢«ç§°ä¸º": 5334,
      "æĶ¿åįı": 5335,
      "é«ĺçļĦ": 5336,
      "çŃĴ": 5337,
      "è»¸": 5338,
      "å»ºæĪĲ": 5339,
      "è´¾": 5340,
      "çŃīåľ°": 5341,
      "è¶Ļ": 5342,
      "åı°åįĹ": 5343,
      "äººåı£æķ°éĩı": 5344,
      "æºĿ": 5345,
      "éĥ½å¸Ĥ": 5346,
      "åĽĽåĢĭ": 5347,
      "åŀĤ": 5348,
      "ç¸£äºº": 5349,
      "åı²èĴĤ": 5350,
      "ç¤¾äº¤": 5351,
      "èĸª": 5352,
      "æ²³åįĹçľģ": 5353,
      "äººæ°ĳåħ±åĴĮåľĭ": 5354,
      "åħĪçĶŁ": 5355,
      "ç¡«": 5356,
      "èĴĤäºŀ": 5357,
      "éĶĻ": 5358,
      "éľĢæ±Ĥ": 5359,
      "è¨ĺéĮĦ": 5360,
      "çĶµè§Ĩåī§": 5361,
      "æĨĳ": 5362,
      "å£°æĺİ": 5363,
      "ace": 5364,
      "ign": 5365,
      "é¢Ĩå¯¼äºº": 5366,
      "é´»": 5367,
      "62": 5368,
      "ies": 5369,
      "Ġd": 5370,
      "äººæĿĥ": 5371,
      "éĢ®": 5372,
      "çīĨ": 5373,
      "æĺ¯æ³ķåĽ½": 5374,
      "å¥´": 5375,
      "åĲįåįķ": 5376,
      "ä¸»æīĵ": 5377,
      "è¢ĸ": 5378,
      "è¾°": 5379,
      "æµ·åĨĽ": 5380,
      "è³¢": 5381,
      "çĲĨå¾·": 5382,
      "çĪ¾å¾·": 5383,
      "æĵİ": 5384,
      "èİĬ": 5385,
      "ç¸±": 5386,
      "ä¸¦ä¸į": 5387,
      "å°ıå§Ĳ": 5388,
      "å¤©ä¸»æķĻ": 5389,
      "çļĦä¸Ģåº§": 5390,
      "éĩĳèŀį": 5391,
      "çĽ¸çķ¶": 5392,
      "èĳ¬": 5393,
      "é£¯": 5394,
      "èµĽäºĭ": 5395,
      "æĽ¾ç¶ĵ": 5396,
      "æĶ¹ç·¨": 5397,
      "æľºåħ³": 5398,
      "éŃģ": 5399,
      "ç¸½çĲĨ": 5400,
      "äººæ°ĳæĶ¿åºľ": 5401,
      "ä¾ĭåŃĲ": 5402,
      "åıĪåĲį": 5403,
      "çįİéłħ": 5404,
      "ĠCom": 5405,
      "çĴĥ": 5406,
      "èĹĿäºº": 5407,
      "å¤ıçĲĨå¾·": 5408,
      "çį²å¾ĹäºĨ": 5409,
      "éłĺå°İ": 5410,
      "åĮĹäº¬å¸Ĥ": 5411,
      "éĢĢåĩº": 5412,
      "æºĸåĤĻ": 5413,
      "é£ŀè¡Į": 5414,
      "é£ŀæľº": 5415,
      "åĪºæ¿Ģ": 5416,
      "ä¿ĥè¿Ľ": 5417,
      "å¸®åĬ©": 5418,
      "èĻ½çĦ¶": 5419,
      "63": 5420,
      "91": 5421,
      "ial": 5422,
      "sur": 5423,
      "çļĦæµ·": 5424,
      "åĲĴ": 5425,
      "äººç±»": 5426,
      "è¿Ī": 5427,
      "éĻķ": 5428,
      "éĽģ": 5429,
      "æĸ¯åį¡": 5430,
      "æ´Ĺ": 5431,
      "åħ¬çľ¾": 5432,
      "è¥¿éĩĮ": 5433,
      "å®¶ä¸Ń": 5434,
      "èĭĳ": 5435,
      "åįĹæĺĮ": 5436,
      "åı£èĻŁ": 5437,
      "èĩ³æŃ£": 5438,
      "éĤ»": 5439,
      "éĺ¿éĩĮ": 5440,
      "æ¡£": 5441,
      "åħ¨éĿ¢": 5442,
      "åįģåĪĨ": 5443,
      "åįģåĽĽ": 5444,
      "çĽ®æłĩ": 5445,
      "åĤ¬": 5446,
      "éĥ½æľī": 5447,
      "èįĴ": 5448,
      "ä¸ŃåĽ½äººæ°ĳ": 5449,
      "æĶ¹éĢł": 5450,
      "å®ĺåĳĺ": 5451,
      "æĿ±äº¬": 5452,
      "åĵģçīĮ": 5453,
      "éŃĤ": 5454,
      "ç»´åŁº": 5455,
      "è¦ĸçĤº": 5456,
      "å¼ķåħ¥": 5457,
      "1971": 5458,
      "1946": 5459,
      "1947": 5460,
      "èĲ¬åħĥ": 5461,
      "æ¯įè¦ª": 5462,
      "ä¸ĩäºº": 5463,
      "éĤĦæľī": 5464,
      "åĮ»åŃ¦": 5465,
      "åħĭéĩĮåħĭ": 5466,
      "å±łæĿĢ": 5467,
      "èĴĤäºŀçĵ¦ç´į": 5468,
      "éĢ®æįķ": 5469,
      "88": 5470,
      "ID": 5471,
      "IP": 5472,
      "IS": 5473,
      "æĹ¥æĸ¼": 5474,
      "æ³Ĭ": 5475,
      "å¯»": 5476,
      "ä»¥åīį": 5477,
      "ä¸Ĭè¿°": 5478,
      "åĩºåı£": 5479,
      "èµŀ": 5480,
      "åİ¥": 5481,
      "ç¨Ģ": 5482,
      "ç¨İ": 5483,
      "è¥¿å®ī": 5484,
      "ç¾İå°¼äºŀ": 5485,
      "åĲĮæ¨£": 5486,
      "èĩªèº«": 5487,
      "æĸĩä»¶": 5488,
      "äºŀç¾İå°¼äºŀ": 5489,
      "è¡¨çİ°": 5490,
      "èĥ½éĩı": 5491,
      "çĲĥåĳĺ": 5492,
      "é©ļ": 5493,
      "æıĲé«ĺ": 5494,
      "å¯¹è±¡": 5495,
      "ong": 5496,
      "éİĸ": 5497,
      "æĶ¹ç¼ĸ": 5498,
      "é©¬éĩĮ": 5499,
      "æ¯ıæĹ¥": 5500,
      "èĦī": 5501,
      "èĦļ": 5502,
      "æľįå½¹": 5503,
      "å¼ķåıĳ": 5504,
      "1974": 5505,
      "çĶ¢åĵģ": 5506,
      "éĬħ": 5507,
      "æīįèĥ½": 5508,
      "ç¤¾ä¼ļä¸»ä¹ī": 5509,
      "æĺ¯ä½įæĸ¼ç¾İåľĭåĬłåĪ©ç¦ıå°¼äºŀå·ŀéĸĢå¤ļè¥¿": 5510,
      "åĦ¿åŃĲ": 5511,
      "éĬ·éĩı": 5512,
      "ç§ģäºº": 5513,
      "ç¿»è¯ĳ": 5514,
      "èģļéĽĨ": 5515,
      "è³´æĸ¯": 5516,
      "æĤ£èĢħ": 5517,
      "KPL": 5518,
      "æ³ķèĴĤå¥§": 5519,
      "æĺ¯ä½įæĸ¼ç¾İåľĭåĬłåĪ©ç¦ıå°¼äºŀå·ŀéĸĢå¤ļè¥¿è«¾ç¸£çļĦä¸ĢåĢĭéĿŀå»ºåĪ¶åľ°åįĢ": 5520,
      "79": 5521,
      "Cl": 5522,
      "ev": 5523,
      "km": 5524,
      "Ġf": 5525,
      "çļĦèº«ä»½": 5526,
      "å¹´ä¸ĸçķĮ": 5527,
      "åį¸": 5528,
      "åįĸ": 5529,
      "äººåĢĳ": 5530,
      "åĴĮæĦıå¤§åĪ©": 5531,
      "å¤§å»Ī": 5532,
      "ä¸Ĭå¸Ŀ": 5533,
      "åĵĢ": 5534,
      "åħ¶åľ¨": 5535,
      "ç¨»": 5536,
      "è¢«ä»»åĳ½": 5537,
      "å¤ļéĤĬå½¢": 5538,
      "èĲĮ": 5539,
      "åŃ¸åĲį": 5540,
      "ç«ĻæĪ¿": 5541,
      "æł¼æŀĹ": 5542,
      "å±±å¤§": 5543,
      "èĭ±å¯¸": 5544,
      "çĦ¦": 5545,
      "åŁºæĸ¼": 5546,
      "å°ĩè»į": 5547,
      "æ£ķ": 5548,
      "éĽ»åĬĽ": 5549,
      "çĽ¸äºĴ": 5550,
      "æīĭæ©Ł": 5551,
      "æ·®": 5552,
      "éĢĻä¸Ģ": 5553,
      "å¤«éĩĮ": 5554,
      "æ´»æĢ§": 5555,
      "æ©Łæľĥ": 5556,
      "æĺ¯ä¸Ģéĥ¨": 5557,
      "150": 5558,
      "æĸ½å·¥": 5559,
      "1944": 5560,
      "1951": 5561,
      "éĴ¥": 5562,
      "1965": 5563,
      "åĤ³èªª": 5564,
      "å¾ĭå¸«": 5565,
      "éħįåĲĪ": 5566,
      "çªģçĦ¶": 5567,
      "çªģåİ¥": 5568,
      "1938": 5569,
      "ç¶²è·¯": 5570,
      "éĥ¡åħ¬": 5571,
      "æ²¿éĿ©": 5572,
      "ç§ĺä¹¦": 5573,
      "çĪĨçĤ¸": 5574,
      "èİİçĻ½": 5575,
      "ä¸»æĮģäºº": 5576,
      "æŁıæŀĹ": 5577,
      "åįļå£«åŃ¦ä½į": 5578,
      "éĤĢè«ĭ": 5579,
      "å±±èĦĪçļĦä¸Ģéĥ¨åĪĨ": 5580,
      "å·´å°Ķå¹²": 5581,
      "æ¾İæ¹ĸ": 5582,
      "nt": 5583,
      "Ġï¼Ī": 5584,
      "çļĦåİŁ": 5585,
      "ä»¿": 5586,
      "ä¸Ģæł·": 5587,
      "æĺ¯é¦Ļæ¸¯": 5588,
      "æľĪåı°": 5589,
      "å¼ĥ": 5590,
      "æķĺ": 5591,
      "æĭ¼": 5592,
      "ç»©": 5593,
      "åľĭéĺ²": 5594,
      "éĿĸ": 5595,
      "æĪĲäºĨ": 5596,
      "ä¸ºäºº": 5597,
      "éĺ´": 5598,
      "ä½ľæĽ²": 5599,
      "ç¬¬ä¸ĥ": 5600,
      "èĢĮè¢«": 5601,
      "èĢĮè¨Ģ": 5602,
      "åįĢçļĦ": 5603,
      "åĪ°çļĦ": 5604,
      "åĲĮåĲį": 5605,
      "å¸ĤæĶ¿åºľ": 5606,
      "çıĢ": 5607,
      "å¸ĥæĭī": 5608,
      "åıĳçĶµ": 5609,
      "å£«åħµ": 5610,
      "å¤©çĦ¶": 5611,
      "ä¾ĨæºĲ": 5612,
      "é¦ĸæŃĮ": 5613,
      "åį³ä½¿": 5614,
      "åıįä¿®": 5615,
      "çİ°åľº": 5616,
      "çĸı": 5617,
      "åħ³æ³¨": 5618,
      "ç»ĦåĲĪ": 5619,
      "çµĲå©ļ": 5620,
      "åŁĥæĸ¯": 5621,
      "èİ«æĸ¯": 5622,
      "ç»Łè®¡": 5623,
      "å°Īæ¥Ń": 5624,
      "1957": 5625,
      "æ³°åĽł": 5626,
      "çħĻ": 5627,
      "å¹¿æ³Ľ": 5628,
      "ç§»åĭķ": 5629,
      "åīµç«ĭ": 5630,
      "ä¸Ńå¤®æ°£è±¡å±Ģ": 5631,
      "è§Ģåħī": 5632,
      "æĤī": 5633,
      "åĽ¾ä¹¦": 5634,
      "çľĭåĪ°": 5635,
      "é¹½": 5636,
      "ä¹ĺå®¢": 5637,
      "ç©Ĩç½ķ": 5638,
      "è·Łéļ¨": 5639,
      "è¾²æ¥Ń": 5640,
      "éĬ·åĶ®": 5641,
      "éĻĦè¿ĳçļĦ": 5642,
      "æ³½è¿ŀ": 5643,
      "çļĦåĲįåŃĹ": 5644,
      "çĸ¾çĹħ": 5645,
      "è½¨éģĵäº¤éĢļ": 5646,
      "å¸ĸæľ¨åĦ¿": 5647,
      "åľ£è®©å¾·": 5648,
      "æĸĩçī©ä¿ĿæĬ¤åįķä½į": 5649,
      "ier": 5650,
      "Ġ2": 5651,
      "ä¸Ģå¸¶": 5652,
      "è¡°": 5653,
      "æĺ¯æĹ¥æľ¬": 5654,
      "æĺ¯è¥¿çıŃçīĻ": 5655,
      "æķĮ": 5656,
      "ä¼ª": 5657,
      "ç»ª": 5658,
      "äºĨä¸Ģä¸ª": 5659,
      "åĢī": 5660,
      "è¯¢": 5661,
      "ç´Ķ": 5662,
      "ä½ľæĪĺ": 5663,
      "éļ±": 5664,
      "æ¸¥": 5665,
      "åħĭæĭī": 5666,
      "èĭ¦": 5667,
      "å¾ĹçŁ¥": 5668,
      "çĻ¼éĽ»": 5669,
      "çĻ¼å°Ħ": 5670,
      "å¸ĥç¾ħ": 5671,
      "åĵ¡å·¥": 5672,
      "ç¶ĵå¸¸": 5673,
      "åŀĭèĻŁ": 5674,
      "èĪīäºº": 5675,
      "æħķ": 5676,
      "ç»Ħå»º": 5677,
      "æĿİæ´ª": 5678,
      "åĬĩæľ¬": 5679,
      "èĳĹåĲįçļĦ": 5680,
      "çµĲåĲĪ": 5681,
      "åŁĥåıĬ": 5682,
      "åĸ®æīĵ": 5683,
      "ick": 5684,
      "ä¹ĲéĺŁ": 5685,
      "æ´ĽæĿī": 5686,
      "å¼ķæĵİ": 5687,
      "1943": 5688,
      "1963": 5689,
      "è¶ħç´ļ": 5690,
      "ç´¢çĪ¾": 5691,
      "ç¼ĸç¨ĭ": 5692,
      "è§ĢéŁ³": 5693,
      "ĠAl": 5694,
      "åį«çĶŁ": 5695,
      "è²ĿçĪ¾": 5696,
      "éĻĨåĨĽ": 5697,
      "è£ģåĪ¤": 5698,
      "åĳ¼åĲ¸": 5699,
      "è·Ŀç¦»": 5700,
      "çķ¢æ¥Ńå¾Į": 5701,
      "ä¼Ļä¼´": 5702,
      "æİªæĸ½": 5703,
      "æ³½è¿ŀæĸ¯åŁº": 5704,
      "ast": 5705,
      "han": 5706,
      "çļĦä¸Ń": 5707,
      "çļĦæīĢæľī": 5708,
      "æľ´": 5709,
      "æĹ¬": 5710,
      "ä¸Ģå®¶": 5711,
      "ä¸Ģå®ļ": 5712,
      "ä¸Ģæ®µ": 5713,
      "åĬ«": 5714,
      "æĹ¥æĬ¥": 5715,
      "äºĨè§£": 5716,
      "éĸ£": 5717,
      "éĥ¨éķ·": 5718,
      "è¦½": 5719,
      "åŃ¦èĢħ": 5720,
      "æĻĤçļĦ": 5721,
      "èŃľ": 5722,
      "ä»»æķĻ": 5723,
      "åįĹèĩ³": 5724,
      "çĻ¼ä½Ī": 5725,
      "åīįèº«": 5726,
      "ä¸¦ä»¥": 5727,
      "è©²çīĩ": 5728,
      "åįģäºĶ": 5729,
      "æ¯ĶåĪ©": 5730,
      "æıĲäº¤": 5731,
      "æľºæ¢°": 5732,
      "çĵ¶": 5733,
      "åıįæĩī": 5734,
      "çĹĽ": 5735,
      "æĽ´åĬł": 5736,
      "ä¿¡ä»°": 5737,
      "æħİ": 5738,
      "ç¢©": 5739,
      "ç¶ŃæĮģ": 5740,
      "äººæ°ĳæ³ķéĻ¢": 5741,
      "è¶³å¤": 5742,
      "æĶ¿æ²»æĸĩåĮĸ": 5743,
      "åĽ¢ä½ĵ": 5744,
      "åħŃå¹´": 5745,
      "åıªæĺ¯": 5746,
      "éĺ²èī¦": 5747,
      "æĹ©ä¸Ĭ": 5748,
      "æļ´åĬĽ": 5749,
      "èªŀè¨Ģ": 5750,
      "å»£æ³Ľ": 5751,
      "éłĲåĳĬ": 5752,
      "ä¸Ńèı¯äººæ°ĳåħ±åĴĮåľĭ": 5753,
      "çĪ±å°Ķ": 5754,
      "çķ¢æ¥Ńæĸ¼": 5755,
      "ct": 5756,
      "ly": 5757,
      "pt": 5758,
      "ue": 5759,
      "||": 5760,
      "çļĦåĪĨ": 5761,
      "çļĦæĶ¯æĮģ": 5762,
      "åľ¨ç¾İåľĭ": 5763,
      "1920": 5764,
      "ä¼½": 5765,
      "éĽĮ": 5766,
      "ç¾Ĭ": 5767,
      "æĸ¯çļĦ": 5768,
      "éĸ±": 5769,
      "æĬ¢": 5770,
      "è¥¿åħĭæĸ¯çī¹": 5771,
      "æ¸Ĳ": 5772,
      "æ°ĳçľ¾": 5773,
      "ç«ĭåį³": 5774,
      "éģĵåħī": 5775,
      "æīĢå±ŀçļĦ": 5776,
      "ä¹Łä¸į": 5777,
      "éĺ¿è®·": 5778,
      "éĺ¿åįľ": 5779,
      "æ®ĭ": 5780,
      "éģ¸æīĭ": 5781,
      "æĺİå°¼": 5782,
      "èµ·æºĲ": 5783,
      "ï¼Ľï¼ī": 5784,
      "éķ¿æľŁ": 5785,
      "äº¤åıī": 5786,
      "å·´æĭī": 5787,
      "å¹¶è¡Į": 5788,
      "æ¢¦": 5789,
      "180": 5790,
      "ç¿ģ": 5791,
      "åı¯ä»¥çĶ¨": 5792,
      "çĵ¦åĭĴ": 5793,
      "ç²µ": 5794,
      "åįĩä»»": 5795,
      "é½Ĵ": 5796,
      "çĨ±å¸¶æĵ¾åĭķ": 5797,
      "æķ´åĢĭ": 5798,
      "åĩ»è´¥": 5799,
      "æĹħè¡Į": 5800,
      "æĹħéģĬ": 5801,
      "éļıæľº": 5802,
      "åįıè®®": 5803,
      "æ§įç®¡": 5804,
      "éĽ»è¦ĸåı°": 5805,
      "æĺ¯ä½įæĸ¼ç¾İåľĭåĬłåĪ©ç¦ıå°¼äºŀå·ŀèĴĻçī¹éĽ·": 5806,
      "ç¾½çĲĥéĮ¦æ¨Ļè³½": 5807,
      "åĬªåĬĽ": 5808,
      "æ£Ģå¯Ł": 5809,
      "ä¹Ķçī¹": 5810,
      "èĭ±æł¼åħ°": 5811,
      "éĤ®æĶ¿": 5812,
      "æĨ²æ³ķ": 5813,
      "æİĴè¡Įæ¦ľ": 5814,
      "åĽ½åĬ¡éĻ¢": 5815,
      "å¹³ç«łæĶ¿äºĭ": 5816,
      "åľ£è®©å¾·è¥¿åħĭæĸ¯çī¹": 5817,
      "çĪ±å°Ķåħ°": 5818,
      "éĺ¿åįľæĿľ": 5819,
      "82": 5820,
      "BS": 5821,
      "TA": 5822,
      "ry": 5823,
      "èł": 5824,
      "Ġl": 5825,
      "Ġw": 5826,
      "äººå¤§": 5827,
      "äººè¢«": 5828,
      "ï¼Ī\"": 5829,
      "è¿¹": 5830,
      "åĮ£": 5831,
      "æĹ¥é¦ĸæĴŃ": 5832,
      "æĸ¯èĴĤ": 5833,
      "æİĺ": 5834,
      "éļ¸": 5835,
      "å§Ĭ": 5836,
      "ä¸ĭéĻį": 5837,
      "å¹³éĿ¢": 5838,
      "æıŃ": 5839,
      "èĻĽ": 5840,
      "è©²å¹´": 5841,
      "é©±": 5842,
      "æķĻå¸Ī": 5843,
      "æĻ®éģį": 5844,
      "åıĹåĤ·": 5845,
      "èŃ¦åĳĬ": 5846,
      "å¤«äºº": 5847,
      "çĦ¶å¾Į": 5848,
      "ens": 5849,
      "å¤ªèı¯": 5850,
      "æ³¢å°Ķ": 5851,
      "å¯¦æĸ½": 5852,
      "1979": 5853,
      "ç»ĵåĲĪ": 5854,
      "ç»ĵå©ļ": 5855,
      "ç½ĳç«Ļ": 5856,
      "é²į": 5857,
      "æĬĹé«Ķ": 5858,
      "æĤ²": 5859,
      "èģ²æĺİ": 5860,
      "äºīè®®": 5861,
      "è¦ıæ¨¡": 5862,
      "çĥıåħĭèĺŃ": 5863,
      "é¡¹çĽ®ä¸Ĭ": 5864,
      "å¾¡åı²": 5865,
      "æĭĺæįķ": 5866,
      "æĸ¯æĻ®æŀĹæĸ¯": 5867,
      "åĵªåĲĴ": 5868,
      "æĺ¯ä½įæĸ¼ç¾İåľĭåĬłåĪ©ç¦ıå°¼äºŀå·ŀèİ«å¤ļåħĭ": 5869,
      "åıįä¿®ä¾ĭ": 5870,
      "æ¸¥å¤ªèı¯": 5871,
      "IM": 5872,
      "man": 5873,
      "prom": 5874,
      "ä¹³": 5875,
      "åľ°é»ŀ": 5876,
      "åĨĪ": 5877,
      "ä»ĸæĸ¼": 5878,
      "è¨»": 5879,
      "çī¹æľĹ": 5880,
      "ä¿ĺ": 5881,
      "è§ī": 5882,
      "ä¸įåĪ°": 5883,
      "çŃ¹": 5884,
      "å¸ĤçļĦ": 5885,
      "å¾Ĺç¥¨": 5886,
      "æĥŁ": 5887,
      "é©¿": 5888,
      "åĪĹåĩº": 5889,
      "æģ¶": 5890,
      "å¢Ļ": 5891,
      "éķ·æľŁ": 5892,
      "ina": 5893,
      "å¸¸å§Ķ": 5894,
      "éļĬéķ·": 5895,
      "èĮĤ": 5896,
      "çĭ¼": 5897,
      "æĶ¶åĪ°": 5898,
      "éĦ§": 5899,
      "è«ĸæĸĩ": 5900,
      "æ¯įäº²": 5901,
      "è©ķç´ļ": 5902,
      "å¾Īå¿«": 5903,
      "éłĺäºĭ": 5904,
      "åľĭéļĽè³½": 5905,
      "çªģçł´": 5906,
      "å·¡éĺ²èī¦": 5907,
      "é»ĺå¾·": 5908,
      "å¾©èĪĪ": 5909,
      "è§Ĥä¼Ĺ": 5910,
      "éĦīæĿĳ": 5911,
      "ç¢ºèªį": 5912,
      "æĮīçħ§": 5913,
      "çļĦæĥħåĨµ": 5914,
      "éĥµæĶ¿": 5915,
      "è³¼è²·": 5916,
      "æĭĨéĻ¤": 5917,
      "éģķåıį": 5918,
      "éĴĪå¯¹": 5919,
      "å°įåħ¶çĻ¼å¸ĥ": 5920,
      "éĺ¿è®·è¥¿": 5921,
      "CO": 5922,
      "HE": 5923,
      "Tub": 5924,
      "ex": 5925,
      "ge": 5926,
      "ãĢİ": 5927,
      "åħĨ": 5928,
      "å¹´å¼Ģå§ĭ": 5929,
      "æĺĩ": 5930,
      "åľ¨ç¾İåĽ½": 5931,
      "çĤºä¸Ģ": 5932,
      "åĴ¬": 5933,
      "1930": 5934,
      "æĭĸ": 5935,
      "ä¸ºä¸»": 5936,
      "çĶŁæħĭ": 5937,
      "ä½ľèĢħ": 5938,
      "ç¨ħ": 5939,
      "è§¦": 5940,
      "è³Ī": 5941,
      "éĩĮåħĭ": 5942,
      "å»ºè®®": 5943,
      "è´Ī": 5944,
      "è´Ĭ": 5945,
      "çľģçº§": 5946,
      "å£«åĿ¦": 5947,
      "éĩįå¤§": 5948,
      "äºļæ´²": 5949,
      "é¦ĸåħĪ": 5950,
      "å°įæĩī": 5951,
      "éĽ»åı°": 5952,
      "ç¿Ķ": 5953,
      "é©¬å°Ķ": 5954,
      "ç©ºåĨĽ": 5955,
      "å¤ªåŃĲ": 5956,
      "çłĶç©¶å¯¦é©Ĺå®¤": 5957,
      "è§£æ±º": 5958,
      "å®ĥæĺ¯": 5959,
      "èħ¹": 5960,
      "åŁĥåĨľ": 5961,
      "æĩīçĶ¨": 5962,
      "éĻ¸çºĮ": 5963,
      "åı¦æľī": 5964,
      "éĤĬçķĮ": 5965,
      "å¼łå®¶": 5966,
      "è°ĥæķ´": 5967,
      "åºĵåŁĥåĨľ": 5968,
      "é»ĥéĩĳ": 5969,
      "è¦ıåĬĥ": 5970,
      "ç°¡ä»ĭ": 5971,
      "åĤĳåħĭ": 5972,
      "åĲĽå£«åĿ¦": 5973,
      "åĦĦç¾İåħĥ": 5974,
      "å¸ĥåĢ«åĬªæĸ¯": 5975,
      "ç©Ĩç½ķé»ĺå¾·": 5976,
      "Go": 5977,
      "Mate": 5978,
      "OS": 5979,
      "RA": 5980,
      "ãĢı": 5981,
      "çļĦå·¥ä½ľ": 5982,
      "æĸ¤": 5983,
      "å¹´åįĢèŃ°æľĥéģ¸èĪī": 5984,
      "äººæŃ»äº¡": 5985,
      "å¸Ĩ": 5986,
      "å±į": 5987,
      "åľ°éĿ¢": 5988,
      "æĻĵ": 5989,
      "åĨĬ": 5990,
      "æ²Ł": 5991,
      "èģ¶": 5992,
      "çī¹å¾ģ": 5993,
      "æ°ĳåĽ½": 5994,
      "ä»»èģ·": 5995,
      "åįĹå¼Ģ": 5996,
      "åı£å¾ĳ": 5997,
      "çĪ¾æĹı": 5998,
      "åĿĤ": 5999,
      "å°¼åħĭ": 6000,
      "ç¦¦": 6001,
      "åĲĪæĪĲ": 6002,
      "åĲĪåĶ±": 6003,
      "åĽłç´ł": 6004,
      "çī©ç§į": 6005,
      "åĮĹç«Ļ": 6006,
      "å¸ĥæľĹ": 6007,
      "èĥ½æºĲ": 6008,
      "å®ļå±ħ": 6009,
      "å¼ıçļĦ": 6010,
      "å¡ĳ": 6011,
      "ä½Ĩä»ĸ": 6012,
      "æįŁ": 6013,
      "ä¸ľåįĹ": 6014,
      "æľºä¼ļ": 6015,
      "éģĶæĸ¡": 6016,
      "æ¥ŃåĭĻ": 6017,
      "æĮģç»Ń": 6018,
      "ä¼ĬæľĹ": 6019,
      "è¨Ńç½®": 6020,
      "æīĵæĵĬ": 6021,
      "ä¿¡èĻŁ": 6022,
      "ç¢§": 6023,
      "äººæ°ĳå¸ģ": 6024,
      "è¶³åįı": 6025,
      "äº¦æĺ¯": 6026,
      "ä¼¯çĪµ": 6027,
      "éĴ©": 6028,
      "åľĭå®¶æ°£è±¡": 6029,
      "å¹¿å·ŀ": 6030,
      "èµĦæºĲ": 6031,
      "å»£æĴŃ": 6032,
      "åī§éĻ¢": 6033,
      "æĪĲä¸ºäºĨ": 6034,
      "èįīæ¡Ī": 6035,
      "é§ķ": 6036,
      "çĮľ": 6037,
      "ç¦»åŃĲ": 6038,
      "ç²¾èĭ±": 6039,
      "è©¦åľĸ": 6040,
      "åı·çº¿çļĦ": 6041,
      "åĭĿåĪ©": 6042,
      "è¸ı": 6043,
      "è´¢æĶ¿": 6044,
      "åķ¦åķ¦": 6045,
      "ç½·å·¥": 6046,
      "èĩªè¡Įè½¦": 6047,
      "ç¾İåľĭæµ·è»įçłĶç©¶å¯¦é©Ĺå®¤": 6048,
      "èĴĤäºŀçĵ¦ç´įç§ĳ": 6049,
      "promise": 6050,
      "å¸ĥåĢ«åĬªæĸ¯èĻŁ": 6051,
      "åľĭå®¶æ°£è±¡ä¸Ńå¿ĥ": 6052,
      "71": 6053,
      "83": 6054,
      "CC": 6055,
      "Sh": 6056,
      "ala": 6057,
      "ian": 6058,
      "Ġ/": 6059,
      "åºŁ": 6060,
      "éĥĬ": 6061,
      "ç«£": 6062,
      "æ²ĸ": 6063,
      "å»ĸ": 6064,
      "åħ¬åĪĨ": 6065,
      "çĶŁåĳ½": 6066,
      "çī¹æĭī": 6067,
      "çī¹èī²": 6068,
      "èŃļ": 6069,
      "ä¹ĭä¸ĭ": 6070,
      "æ±°": 6071,
      "è¾ħ": 6072,
      "å¸ĤæĶ¿": 6073,
      "åįĹæĺİ": 6074,
      "éĢļè»Ĭ": 6075,
      "èĭ±è¯Ń": 6076,
      "å¤ĸåľĭ": 6077,
      "å¦ĩ": 6078,
      "éĩįçĤ¹": 6079,
      "é¦ĸæŃĮæĽ²": 6080,
      "çĽ¸ä¿¡": 6081,
      "åĽĽä¸ª": 6082,
      "çİĭåŃĲ": 6083,
      "åĨħéĺģ": 6084,
      "æľªæľī": 6085,
      "è¿Ĳè¾ĵ": 6086,
      "çŁ¥è¯Ĩ": 6087,
      "å·²è¢«": 6088,
      "èģĶç³»": 6089,
      "èģĶç½ĳ": 6090,
      "å¥¥å°Ķ": 6091,
      "æ»¾": 6092,
      "ç¼ĺ": 6093,
      "æĪ°å¾Į": 6094,
      "æĪ°å½¹": 6095,
      "ç¸½çĿ£": 6096,
      "æīĵç®Ĺ": 6097,
      "ç¢ĺ": 6098,
      "éĽ·ç¥ŀ": 6099,
      "èİ«è¥¿": 6100,
      "ä¸»è¦ģæĺ¯": 6101,
      "æ´Ľæĸ¯": 6102,
      "å¥§åľ°åĪ©": 6103,
      "éĢ£ä»»": 6104,
      "çĳŀåħ¸": 6105,
      "å®¹æĺĵ": 6106,
      "æŀĦéĢł": 6107,
      "æĤ¼": 6108,
      "åħ¸ç¤¼": 6109,
      "æ²ĥçĪ¾": 6110,
      "æķĪæŀľ": 6111,
      "æī¿è®¤": 6112,
      "åºĵå°Ķ": 6113,
      "ç£¨": 6114,
      "éĺ¿å°Ķåįĳæĸ¯": 6115,
      "ç§ĳæĬĢå¤§åŃ¸": 6116,
      "èı¯çĽĽéłĵç¸£çļĦä¸ĢåĢĭéĿŀå»ºåĪ¶åľ°åįĢ": 6117,
      "åįĹåĮĹç·ļ": 6118,
      "æĺ¯ä½įæĸ¼ç¾İåľĭéĺ¿èĤ¯èī²å·ŀèı¯çĽĽéłĵç¸£çļĦä¸ĢåĢĭéĿŀå»ºåĪ¶åľ°åįĢ": 6119,
      "çŁ©éĺµ": 6120,
      "åħĥèĢģéĻ¢": 6121,
      "çİ»çĴĥ": 6122,
      "çĵ¦åĭĴåºĵåŁĥåĨľ": 6123,
      "ç¾İåľĭæµ·è»įçłĶç©¶å¯¦é©Ĺå®¤çµ¦äºĪ": 6124,
      "1000": 6125,
      "74": 6126,
      "NC": 6127,
      "Sch": 6128,
      "ff": 6129,
      "çļĦé«ĺ": 6130,
      "çļĦåŁİå¸Ĥ": 6131,
      "åĪļ": 6132,
      "åĽļ": 6133,
      "ä¸ŃæľŁ": 6134,
      "ä¸Ģç§į": 6135,
      "æľĪåºķ": 6136,
      "åĴ¸": 6137,
      "æĹ¥èĪīè¡Į": 6138,
      "å¤§éĺª": 6139,
      "éĿĻ": 6140,
      "å½»": 6141,
      "è¡Įäºº": 6142,
      "è¥¿è·¯": 6143,
      "ä¸įè¦ģ": 6144,
      "å®¶çļĦ": 6145,
      "ãĢĭãĢĬ": 6146,
      "è·¡": 6147,
      "è¢«ç¨±çĤº": 6148,
      "è¾ī": 6149,
      "èĩªåĭķ": 6150,
      "åĿı": 6151,
      "å°¼åŁº": 6152,
      "ç¦Ħ": 6153,
      "çıĬ": 6154,
      "ç±³å°Ķ": 6155,
      "ä¸¦å°ĩ": 6156,
      "åı°æ¹¾": 6157,
      "æº¯": 6158,
      "å¼Ģå·¥": 6159,
      "å¹¶ä¸į": 6160,
      "é¦¬åħĭ": 6161,
      "æĦıå¤ĸ": 6162,
      "ç¤¾åĮº": 6163,
      "çĦ¶åĲİ": 6164,
      "å°±ä»»": 6165,
      "åĿĩä¸º": 6166,
      "å¤ªçĽĳ": 6167,
      "æĪ°èī¦": 6168,
      "å³½": 6169,
      "ç»´åŁĥ": 6170,
      "æ²ĻçĶ°": 6171,
      "å®£ä¼ł": 6172,
      "èĲ¨å°Ķ": 6173,
      "åĳ¨è¾¹": 6174,
      "åģľéĿł": 6175,
      "éĤ£äºĽ": 6176,
      "åı°çģ£ä¸Ńå¤®æ°£è±¡å±Ģ": 6177,
      "è§Ħå®ļ": 6178,
      "æĹħæ¸¸": 6179,
      "éļ¨åį³": 6180,
      "è¿ŀç»Ń": 6181,
      "æķĪåĬĽ": 6182,
      "çĭĢæ³ģ": 6183,
      "ç¶²æ°ĳ": 6184,
      "åį«éĺŁ": 6185,
      "åĸľæŃ¡": 6186,
      "åĥ¹åĢ¼": 6187,
      "ç´ħèī²": 6188,
      "edt": 6189,
      "ç©Ĩæĸ¯": 6190,
      "äº¬éĥ½åĭķçķ«": 6191,
      "è½¦è¾Ĩæ®µ": 6192,
      "æĪ°é¬¥æ©Ł": 6193,
      "ç¶ľåĲĪ": 6194,
      "è¾½å®ģ": 6195,
      "é¦¬ä¾Ĩè¥¿äºŀ": 6196,
      "NA": 6197,
      "ib": 6198,
      "å¹´åĬłåħ¥": 6199,
      "éĢ¼": 6200,
      "éģŀ": 6201,
      "è¿¦": 6202,
      "å±Ī": 6203,
      "èĩŁ": 6204,
      "æī®": 6205,
      "æ³¥": 6206,
      "ä»ĸè¢«": 6207,
      "æĬĵ": 6208,
      "èĢĮæĪĲ": 6209,
      "æľ¬çīĩ": 6210,
      "å£ĺ": 6211,
      "çĶ±æŃ¤": 6212,
      "æ±¡": 6213,
      "å¾ĮèĢħ": 6214,
      "äºĮäºº": 6215,
      "å¸ĥèĲĬ": 6216,
      "å¸ĥé²ģ": 6217,
      "èĻļ": 6218,
      "å±±è¥¿": 6219,
      "æĺİé¡¯": 6220,
      "åĤ¨": 6221,
      "åĽĽåįģ": 6222,
      "çĶµè¯Ŀ": 6223,
      "éħ¯": 6224,
      "åĥ§": 6225,
      "èº«é«Ķ": 6226,
      "ç¸½éĥ¨": 6227,
      "æĶ¯ä»ĺ": 6228,
      "åŃ£èµĽ": 6229,
      "éĹľæĸ¼": 6230,
      "æ³¢çī¹": 6231,
      "èĦĬ": 6232,
      "èĬ±è»Ĭ": 6233,
      "æİĴçĲĥ": 6234,
      "çĶ¢æ¥Ń": 6235,
      "1966": 6236,
      "å¯¼å¸Ī": 6237,
      "æĪĳçļĦ": 6238,
      "ç§»åĪ°": 6239,
      "éħįç½®": 6240,
      "æĬĹæĹ¥": 6241,
      "æıĲä¾ĽäºĨ": 6242,
      "å·¡è¿´": 6243,
      "å¾®åįļ": 6244,
      "èĨľ": 6245,
      "ç¡®å®ļ": 6246,
      "æİĴåĲįç¬¬": 6247,
      "ult": 6248,
      "æĿ¥èĩªäºİ": 6249,
      "éĺ¿çĪ¾åįĳæĸ¯": 6250,
      "æĸ°ç«¹å¸Ĥ": 6251,
      "èĩªåĬ¨åĮĸ": 6252,
      "èĺĭæŀľ": 6253,
      "æ·ĺæ±°": 6254,
      "åĩŃåĢŁ": 6255,
      "éĻķè¥¿": 6256,
      "æĿİæ´ªåħĥ": 6257,
      "69": 6258,
      "85": 6259,
      "tw": 6260,
      "Ġ10": 6261,
      "äºŃ": 6262,
      "çļĦæŃĮæĽ²": 6263,
      "çļĦæ¯ĶèµĽ": 6264,
      "å¹´ä»¥": 6265,
      "åľ¨æĹ¥æľ¬": 6266,
      "åľ¨ä¸Ģèµ·": 6267,
      "ä¸Ńå±±": 6268,
      "æĺ¯çĳŀå£«": 6269,
      "æľĪä»»": 6270,
      "æĸ¯éĩĮ": 6271,
      "æĸ¯æĭīå¤«": 6272,
      "åľĭåħ§": 6273,
      "åĽ½åĨħ": 6274,
      "åħ¶å®ĥ": 6275,
      "éķľ": 6276,
      "åĪĨæł¡": 6277,
      "è¢ģ": 6278,
      "è¢ĭ": 6279,
      "æ¨ª": 6280,
      "æľ¬å±Ĩ": 6281,
      "æ±Ŀ": 6282,
      "åįĹç«Ļ": 6283,
      "å·¥å»ł": 6284,
      "æĸĩèĹĿ": 6285,
      "æľĢè¿ĳ": 6286,
      "æł¼éĩĮ": 6287,
      "æł¼åĭĴ": 6288,
      "èĻ«": 6289,
      "ä¹Łåı¯ä»¥": 6290,
      "èĤĮ": 6291,
      "èĤĸ": 6292,
      "çįµ": 6293,
      "æķĻæľĥ": 6294,
      "å¤©çļĦ": 6295,
      "éĥ½æľĥ": 6296,
      "å¯¹åºĶ": 6297,
      "æ·¨": 6298,
      "ç¿ħ": 6299,
      "è¯¥çľģ": 6300,
      "èĸĽ": 6301,
      "ä¿Ŀå®Ī": 6302,
      "é¾Ĳ": 6303,
      "åĻ´": 6304,
      "æŃ¦è£ħ": 6305,
      "åĽ¢éĺŁ": 6306,
      "ä»İèĢĮ": 6307,
      "1958": 6308,
      "1962": 6309,
      "éĶ®": 6310,
      "ä½įäºİæ³ķåĽ½": 6311,
      "æĪĲç«ĭäºİ": 6312,
      "ä¸Ńåľĭåľĭå®¶æ°£è±¡ä¸Ńå¿ĥ": 6313,
      "ç¾¤å³¶": 6314,
      "å»£å·ŀ": 6315,
      "è§Ģå¯Ł": 6316,
      "æ¢Ŀä»¶": 6317,
      "stedt": 6318,
      "èģĸèªķ": 6319,
      "æ¼ĶåĶ±ä¼ļ": 6320,
      "é¼ł": 6321,
      "ack": 6322,
      "åı¬å¼Ģ": 6323,
      "æ£Ģæµĭ": 6324,
      "ç·´ç¿Ĵ": 6325,
      "éĥµç¥¨": 6326,
      "åĮĸåŃ¦å¼ı": 6327,
      "INSE": 6328,
      "åģ¶åĥı": 6329,
      "éįµ": 6330,
      "å·¥äººç¤¾ä¼ļåħļ": 6331,
      "YouTub": 6332,
      "å¹«åĬ©": 6333,
      "æĵ¾åĭķç·¨èĻŁ": 6334,
      "è·¯æĺĵæĸ¯": 6335,
      "èĤ¡ä»½æľīéĻĲåħ¬åı¸": 6336,
      "è®¨è®º": 6337,
      "åĬŀåħ¬å®¤": 6338,
      "ç¿łéĽĢ": 6339,
      "ç§ĳçļĦåħ¶ä¸Ńä¸Ģå±¬": 6340,
      "æĹ¨åľ¨": 6341,
      "ight": 6342,
      "INSEE": 6343,
      "89": 6344,
      "MR": 6345,
      "PR": 6346,
      "ss": 6347,
      "ux": 6348,
      "ï½": 6349,
      "çļĦæ°´": 6350,
      "çļĦç¬¬ä¸ī": 6351,
      "çļĦéĩįè¦ģ": 6352,
      "åįĴ": 6353,
      "åĲĬ": 6354,
      "éĻ°": 6355,
      "åĩ¸": 6356,
      "æĪĲæľ¬": 6357,
      "åħ¶é¤ĺ": 6358,
      "åħ¬ä¸»": 6359,
      "åħ¬åĳĬ": 6360,
      "åħ¬ä½Ī": 6361,
      "è¥¿æĸ¯": 6362,
      "ç¬¬å®ī": 6363,
      "ãĢĭï¼Īï¼īï¼Į": 6364,
      "æľ¬æ¬¡": 6365,
      "æ±ª": 6366,
      "åŃ¸èĢħ": 6367,
      "ç¤¦": 6368,
      "åĮĹç¾İ": 6369,
      "éĺ¿æĸ¯": 6370,
      "åħ±çĶ¢": 6371,
      "åħ¨éķ¿": 6372,
      "åĪ¶å®ļ": 6373,
      "äºļåİĨ": 6374,
      "éķ·çļĦ": 6375,
      "éķ¿æĺ¥": 6376,
      "è¿ĻéĩĮ": 6377,
      "ä¸ŃåĽ½åħ±äº§åħļ": 6378,
      "éĢĻæ¨£": 6379,
      "ä¸ļåĬ¡": 6380,
      "åħ¶ä¸ŃåĮħæĭ¬": 6381,
      "æĽ´åĲįä¸º": 6382,
      "èħ°": 6383,
      "æĬ¥çº¸": 6384,
      "å¡ŀå¾·": 6385,
      "åį°ç¬¬å®ī": 6386,
      "èĭıç»´åŁĥ": 6387,
      "è³ĩéĩĳ": 6388,
      "è³ĩæºĲ": 6389,
      "èĵ¬": 6390,
      "æŃ¥æ§į": 6391,
      "åįĬå²Ľ": 6392,
      "1934": 6393,
      "ç¬¦åĲĪ": 6394,
      "å¤§å¤ļæķ°": 6395,
      "æµĻæ±Łçľģ": 6396,
      "æ¡Ĩæŀ¶": 6397,
      "ç«£å·¥": 6398,
      "ç¾İåľĭæµ·è»įçłĶç©¶å¯¦é©Ĺå®¤çµ¦äºĪæĵ¾åĭķç·¨èĻŁ": 6399
    },
    "merges": [
      [
        "ï",
        "¼"
      ],
      [
        "ä",
        "¸"
      ],
      [
        "ã",
        "Ģ"
      ],
      [
        "ï¼",
        "Į"
      ],
      [
        "ä",
        "º"
      ],
      [
        "ç",
        "ļ"
      ],
      [
        "ãĢ",
        "Ĥ"
      ],
      [
        "çļ",
        "Ħ"
      ],
      [
        "æ",
        "ľ"
      ],
      [
        "å",
        "ħ"
      ],
      [
        "å",
        "ľ"
      ],
      [
        "å",
        "ı"
      ],
      [
        "å",
        "¹"
      ],
      [
        "æ",
        "ĸ"
      ],
      [
        "ä",
        "»"
      ],
      [
        "å",
        "¤"
      ],
      [
        "å",
        "Ī"
      ],
      [
        "å¹",
        "´"
      ],
      [
        "å",
        "į"
      ],
      [
        "å",
        "°"
      ],
      [
        "å",
        "Ĳ"
      ],
      [
        "å",
        "®"
      ],
      [
        "ä",
        "½"
      ],
      [
        "ç",
        "Ķ"
      ],
      [
        "æ",
        "Ĺ"
      ],
      [
        "æ",
        "ĺ"
      ],
      [
        "å",
        "Ń"
      ],
      [
        "å",
        "¾"
      ],
      [
        "äº",
        "º"
      ],
      [
        "åľ",
        "¨"
      ],
      [
        "å",
        "Ľ"
      ],
      [
        "å",
        "¸"
      ],
      [
        "ä¸",
        "Ń"
      ],
      [
        "ãĢ",
        "ģ"
      ],
      [
        "ä¸",
        "Ģ"
      ],
      [
        "æ",
        "Ī"
      ],
      [
        "å",
        "·"
      ],
      [
        "å",
        "Ĭ"
      ],
      [
        "é",
        "Ģ"
      ],
      [
        "ä",
        "¹"
      ],
      [
        "ç",
        "ī"
      ],
      [
        "2",
        "0"
      ],
      [
        "é",
        "ģ"
      ],
      [
        "è",
        "¡"
      ],
      [
        "ç",
        "Ĥ"
      ],
      [
        "ï¼",
        "Ī"
      ],
      [
        "ï¼",
        "ī"
      ],
      [
        "å",
        "º"
      ],
      [
        "æ",
        "Ń"
      ],
      [
        "æĺ",
        "¯"
      ],
      [
        "è",
        "¿"
      ],
      [
        "çĤ",
        "º"
      ],
      [
        "é",
        "ĩ"
      ],
      [
        "å",
        "Į"
      ],
      [
        "æľ",
        "ī"
      ],
      [
        "æľ",
        "Ī"
      ],
      [
        "å",
        "±"
      ],
      [
        "å",
        "Ĵ"
      ],
      [
        "æĹ",
        "¥"
      ],
      [
        "1",
        "9"
      ],
      [
        "åĴ",
        "Į"
      ],
      [
        "å¤",
        "§"
      ],
      [
        "æ",
        "Ķ"
      ],
      [
        "æ",
        "°"
      ],
      [
        "è",
        "ĩ"
      ],
      [
        "é",
        "Ļ"
      ],
      [
        "æ",
        "ī"
      ],
      [
        "è",
        "Ģ"
      ],
      [
        "å",
        "ĩ"
      ],
      [
        "å",
        "¼"
      ],
      [
        "æ",
        "ķ"
      ],
      [
        "ä",
        "¼"
      ],
      [
        "æ",
        "Ŀ"
      ],
      [
        "æ",
        "ĭ"
      ],
      [
        "åľ",
        "°"
      ],
      [
        "é",
        "Ľ"
      ],
      [
        "å",
        "¥"
      ],
      [
        "æ",
        "Ļ"
      ],
      [
        "é",
        "ĥ"
      ],
      [
        "ç",
        "Ľ"
      ],
      [
        "ç",
        "¾"
      ],
      [
        "æĸ",
        "¯"
      ],
      [
        "ç",
        "»"
      ],
      [
        "æ",
        "³"
      ],
      [
        "ç",
        "«"
      ],
      [
        "åľ",
        "ĭ"
      ],
      [
        "è",
        "®"
      ],
      [
        "ç",
        "§"
      ],
      [
        "å",
        "Ĩ"
      ],
      [
        "è",
        "Ī"
      ],
      [
        "æ",
        "ł"
      ],
      [
        "å",
        "¯"
      ],
      [
        "é",
        "Ŀ"
      ],
      [
        "æ",
        "²"
      ],
      [
        "ä»",
        "¥"
      ],
      [
        "ç",
        "Ĳ"
      ],
      [
        "äº",
        "Ĩ"
      ],
      [
        "åĽ",
        "½"
      ],
      [
        "å",
        "½"
      ],
      [
        "å",
        "Ģ"
      ],
      [
        "â",
        "Ģ"
      ],
      [
        "å",
        "ī"
      ],
      [
        "æ",
        "µ"
      ],
      [
        "å",
        "Ł"
      ],
      [
        "æĸ",
        "¼"
      ],
      [
        "æĪ",
        "Ĳ"
      ],
      [
        "è",
        "¯"
      ],
      [
        "ä¸",
        "º"
      ],
      [
        "ä¸",
        "Ĭ"
      ],
      [
        "åĩ",
        "º"
      ],
      [
        "é",
        "ĺ"
      ],
      [
        "ç",
        "º"
      ],
      [
        "ç",
        "Ļ"
      ],
      [
        "è",
        "µ"
      ],
      [
        "ä»",
        "ĸ"
      ],
      [
        "é",
        "«"
      ],
      [
        "Â",
        "·"
      ],
      [
        "æ",
        "´"
      ],
      [
        "æ",
        "¯"
      ],
      [
        "å",
        "ĵ"
      ],
      [
        "å",
        "»"
      ],
      [
        "è¡",
        "Į"
      ],
      [
        "ç",
        "´"
      ],
      [
        "åħ",
        "¶"
      ],
      [
        "æ",
        "İ"
      ],
      [
        "ä",
        "¾"
      ],
      [
        "è",
        "¨"
      ],
      [
        "æ",
        "Ľ"
      ],
      [
        "é",
        "¦"
      ],
      [
        "é",
        "ĸ"
      ],
      [
        "ç",
        "ķ"
      ],
      [
        "åħ",
        "¬"
      ],
      [
        "çĶ",
        "Ł"
      ],
      [
        "å",
        "İ"
      ],
      [
        "ç",
        "Ī"
      ],
      [
        "å",
        "ĭ"
      ],
      [
        "å",
        "ĳ"
      ],
      [
        "éĥ",
        "¨"
      ],
      [
        "ç",
        "¬"
      ],
      [
        "è",
        "ģ"
      ],
      [
        "è",
        "¦"
      ],
      [
        "åĲ",
        "į"
      ],
      [
        "çī",
        "¹"
      ],
      [
        "è",
        "¥"
      ],
      [
        "ä",
        "¿"
      ],
      [
        "æ",
        "ŀ"
      ],
      [
        "ä¸",
        "»"
      ],
      [
        "ä½",
        "ľ"
      ],
      [
        "æ",
        "Ĭ"
      ],
      [
        "ç",
        "¨"
      ],
      [
        "æ",
        "Ģ"
      ],
      [
        "è¥",
        "¿"
      ],
      [
        "ç",
        "İ"
      ],
      [
        "é",
        "ļ"
      ],
      [
        "è",
        "§"
      ],
      [
        "ç¬",
        "¬"
      ],
      [
        "ç",
        "©"
      ],
      [
        "ä¸",
        "į"
      ],
      [
        "ä½",
        "į"
      ],
      [
        "å®",
        "¶"
      ],
      [
        "äº",
        "İ"
      ],
      [
        "ãĢ",
        "Ĭ"
      ],
      [
        "ãĢ",
        "ĭ"
      ],
      [
        "é",
        "ķ"
      ],
      [
        "ç¾",
        "İ"
      ],
      [
        "åŃ",
        "¦"
      ],
      [
        "æ",
        "¸"
      ],
      [
        "åĪ",
        "Ĩ"
      ],
      [
        "ç",
        "µ"
      ],
      [
        "æ³",
        "ķ"
      ],
      [
        "æ°",
        "ĳ"
      ],
      [
        "å·",
        "ŀ"
      ],
      [
        "èĢ",
        "Į"
      ],
      [
        "æĻ",
        "Ĥ"
      ],
      [
        "è",
        "·"
      ],
      [
        "è",
        "¢"
      ],
      [
        "å",
        "§"
      ],
      [
        "è",
        "ĥ"
      ],
      [
        "ç",
        "ľ"
      ],
      [
        "è",
        "½"
      ],
      [
        "åĪ",
        "©"
      ],
      [
        "çĶ",
        "¨"
      ],
      [
        "åĬ",
        "ł"
      ],
      [
        "è",
        "Ń"
      ],
      [
        "å",
        "¿"
      ],
      [
        "åį",
        "Ģ"
      ],
      [
        "æ",
        "¨"
      ],
      [
        "ä»",
        "»"
      ],
      [
        "æ",
        "¬"
      ],
      [
        "åħ",
        "ĭ"
      ],
      [
        "è",
        "©"
      ],
      [
        "æĸ",
        "¹"
      ],
      [
        "åĪ",
        "°"
      ],
      [
        "è",
        "ĭ"
      ],
      [
        "ç",
        "½"
      ],
      [
        "æľ",
        "¬"
      ],
      [
        "æľ",
        "ĥ"
      ],
      [
        "å",
        "ł"
      ],
      [
        "æ",
        "Į"
      ],
      [
        "è¢",
        "«"
      ],
      [
        "é",
        "»"
      ],
      [
        "åŃ",
        "Ĳ"
      ],
      [
        "20",
        "1"
      ],
      [
        "ä¸",
        "ĭ"
      ],
      [
        "æĶ",
        "¿"
      ],
      [
        "ä¹",
        "ĭ"
      ],
      [
        "åı",
        "Ĭ"
      ],
      [
        "å¤",
        "ļ"
      ],
      [
        "é«",
        "ĺ"
      ],
      [
        "å",
        "£"
      ],
      [
        "ç",
        "±"
      ],
      [
        "é",
        "Ĺ"
      ],
      [
        "è",
        "ī"
      ],
      [
        "çĶ",
        "±"
      ],
      [
        "é",
        "¢"
      ],
      [
        "æ",
        "±"
      ],
      [
        "è",
        "¾"
      ],
      [
        "å¾",
        "·"
      ],
      [
        "å¹",
        "³"
      ],
      [
        "ç",
        "Ń"
      ],
      [
        "å¾",
        "Į"
      ],
      [
        "åĲ",
        "Į"
      ],
      [
        "æµ",
        "·"
      ],
      [
        "è",
        "³"
      ],
      [
        "è",
        "Ĳ"
      ],
      [
        "é",
        "ł"
      ],
      [
        "å¸",
        "Ĥ"
      ],
      [
        "çĲ",
        "Ĩ"
      ],
      [
        "æĸ",
        "°"
      ],
      [
        "éĿ",
        "¢"
      ],
      [
        "åį",
        "Ĺ"
      ],
      [
        "åı",
        "¯"
      ],
      [
        "åŃ",
        "¸"
      ],
      [
        "å·",
        "¥"
      ],
      [
        "ç",
        "¶"
      ],
      [
        "èĩ",
        "ª"
      ],
      [
        "æĭ",
        "ī"
      ],
      [
        "Ġ",
        "("
      ],
      [
        "éĩ",
        "Į"
      ],
      [
        "åı",
        "£"
      ],
      [
        "åĢ",
        "ĭ"
      ],
      [
        "åº",
        "¦"
      ],
      [
        "çĪ",
        "¾"
      ],
      [
        "æĸ",
        "ĩ"
      ],
      [
        "èĪ",
        "ĩ"
      ],
      [
        "ç",
        "¤"
      ],
      [
        "æ",
        "ĵ"
      ],
      [
        "é",
        "¡"
      ],
      [
        "è",
        "£"
      ],
      [
        "äº",
        "ĭ"
      ],
      [
        "è",
        "ª"
      ],
      [
        "å°",
        "Ķ"
      ],
      [
        "å",
        "Ŀ"
      ],
      [
        "æ",
        "¼"
      ],
      [
        "è",
        "»"
      ],
      [
        "è·",
        "¯"
      ],
      [
        "å»",
        "º"
      ],
      [
        "ç«",
        "Ļ"
      ],
      [
        "äº",
        "ŀ"
      ],
      [
        "å¾",
        "Ĺ"
      ],
      [
        "è",
        "İ"
      ],
      [
        "èĩ",
        "³"
      ],
      [
        "å°",
        "¼"
      ],
      [
        "ãĢ",
        "Į"
      ],
      [
        "ãĢ",
        "į"
      ],
      [
        "ç",
        "¦"
      ],
      [
        "è¡",
        "¨"
      ],
      [
        "ç",
        "¸"
      ],
      [
        "åĲ",
        "Ī"
      ],
      [
        "æľ",
        "Ģ"
      ],
      [
        "ç",
        "ı"
      ],
      [
        "ä¸",
        "ī"
      ],
      [
        "è",
        "´"
      ],
      [
        "ä¸",
        "ª"
      ],
      [
        "æ",
        "ı"
      ],
      [
        "éĻ",
        "¢"
      ],
      [
        "çĻ",
        "¼"
      ],
      [
        "æľ",
        "Ł"
      ],
      [
        "ä¼",
        "ļ"
      ],
      [
        "åī",
        "į"
      ],
      [
        "ç§",
        "ĳ"
      ],
      [
        "åĽ",
        "ł"
      ],
      [
        "é",
        "Ł"
      ],
      [
        "æŃ",
        "¤"
      ],
      [
        "éĢ",
        "ļ"
      ],
      [
        "æł",
        "¼"
      ],
      [
        "çī",
        "©"
      ],
      [
        "ï¼ī",
        "ï¼Į"
      ],
      [
        "ç",
        "Ł"
      ],
      [
        "ç«",
        "ĭ"
      ],
      [
        "æ",
        "Ħ"
      ],
      [
        "éģ",
        "ĵ"
      ],
      [
        "äº",
        "Į"
      ],
      [
        "âĢ",
        "ľ"
      ],
      [
        "é",
        "Ĥ"
      ],
      [
        "âĢ",
        "Ŀ"
      ],
      [
        "æī",
        "Ģ"
      ],
      [
        "åĲ",
        "İ"
      ],
      [
        "ç",
        "¥"
      ],
      [
        "åĮ",
        "Ĺ"
      ],
      [
        "åħ",
        "¥"
      ],
      [
        "ä»",
        "£"
      ],
      [
        "æĹ",
        "¶"
      ],
      [
        "ç±",
        "³"
      ],
      [
        "æ",
        "Ł"
      ],
      [
        "å¸",
        "ĥ"
      ],
      [
        "ç",
        "ģ"
      ],
      [
        "ä¸",
        "ĸ"
      ],
      [
        "è",
        "Ļ"
      ],
      [
        "å±",
        "±"
      ],
      [
        "èĭ",
        "±"
      ],
      [
        "æ¬",
        "¡"
      ],
      [
        "æĢ",
        "§"
      ],
      [
        "èĥ",
        "½"
      ],
      [
        "ä¹",
        "Ł"
      ],
      [
        "è",
        "Ĭ"
      ],
      [
        "ä¸",
        "¦"
      ],
      [
        "çŃ",
        "ī"
      ],
      [
        "è¦",
        "ģ"
      ],
      [
        "åĮ",
        "ĸ"
      ],
      [
        "å®",
        "ļ"
      ],
      [
        "éĺ",
        "¿"
      ],
      [
        "è",
        "Ĥ"
      ],
      [
        "æ",
        "¡"
      ],
      [
        "ç",
        "·"
      ],
      [
        "èĢ",
        "ħ"
      ],
      [
        "å",
        "ĸ"
      ],
      [
        "åħ",
        "±"
      ],
      [
        "å°",
        "ı"
      ],
      [
        "è",
        "¶"
      ],
      [
        "åı",
        "°"
      ],
      [
        "è",
        "²"
      ],
      [
        "çĲ",
        "ĥ"
      ],
      [
        "åħ",
        "¨"
      ],
      [
        "å¤",
        "ĸ"
      ],
      [
        "æ²",
        "»"
      ],
      [
        "å",
        "ģ"
      ],
      [
        "çľ",
        "ģ"
      ],
      [
        "0",
        "0"
      ],
      [
        "è©",
        "²"
      ],
      [
        "ç",
        "į"
      ],
      [
        "ç",
        "®"
      ],
      [
        "ä¸",
        "İ"
      ],
      [
        "ï¼",
        "ļ"
      ],
      [
        "å¼",
        "ı"
      ],
      [
        "æ¼",
        "Ķ"
      ],
      [
        "å®",
        "ī"
      ],
      [
        "äºº",
        "åı£"
      ],
      [
        "æ",
        "ĥ"
      ],
      [
        "åĮ",
        "º"
      ],
      [
        "å",
        "¦"
      ],
      [
        "åı",
        "ĳ"
      ],
      [
        "é",
        "©"
      ],
      [
        "ç",
        "³"
      ],
      [
        "ç",
        "Ħ"
      ],
      [
        "å£",
        "«"
      ],
      [
        "å",
        "¡"
      ],
      [
        "ç",
        "ł"
      ],
      [
        "ç¾İ",
        "åľĭ"
      ],
      [
        "åĵ",
        "¡"
      ],
      [
        "ä½",
        "¿"
      ],
      [
        "è",
        "ı"
      ],
      [
        "åı",
        "¸"
      ],
      [
        "æ",
        "¥"
      ],
      [
        "åŁ",
        "º"
      ],
      [
        "éĸ",
        "ĭ"
      ],
      [
        "éĩ",
        "į"
      ],
      [
        "æķ",
        "Ļ"
      ],
      [
        "åĪ",
        "¶"
      ],
      [
        "1",
        "0"
      ],
      [
        "åį",
        "ģ"
      ],
      [
        "åĭ",
        "ķ"
      ],
      [
        "çĽ",
        "®"
      ],
      [
        "å¤",
        "©"
      ],
      [
        "å½",
        "±"
      ],
      [
        "æ",
        "®"
      ],
      [
        "åħ",
        "ĥ"
      ],
      [
        "æ¯",
        "Ķ"
      ],
      [
        "åĪ",
        "Ĺ"
      ],
      [
        "äº",
        "ļ"
      ],
      [
        "éģ",
        "¸"
      ],
      [
        "æĺ",
        "İ"
      ],
      [
        "å",
        "ķ"
      ],
      [
        "èµ",
        "·"
      ],
      [
        "æ",
        "ģ"
      ],
      [
        "ä¾",
        "Ĩ"
      ],
      [
        "ä½",
        "Ĩ"
      ],
      [
        "å°",
        "ĩ"
      ],
      [
        "å¿",
        "ĥ"
      ],
      [
        "æ¸",
        "¯"
      ],
      [
        "çļĦ",
        "ä¸Ģ"
      ],
      [
        "æŃ",
        "£"
      ],
      [
        "æ",
        "£"
      ],
      [
        "é¦",
        "ĸ"
      ],
      [
        "å°",
        "į"
      ],
      [
        "è",
        "¼"
      ],
      [
        "è½",
        "¦"
      ],
      [
        "éĸ",
        "ĵ"
      ],
      [
        "æ",
        "©"
      ],
      [
        "å¥",
        "³"
      ],
      [
        "åĬ",
        "Ľ"
      ],
      [
        "å",
        "Ĥ"
      ],
      [
        "åİ",
        "Ł"
      ],
      [
        "20",
        "19"
      ],
      [
        "åĳ",
        "ĺ"
      ],
      [
        "1",
        "2"
      ],
      [
        "åĬ",
        "¨"
      ],
      [
        "ç³",
        "»"
      ],
      [
        "å",
        "¢"
      ],
      [
        "æĪ",
        "ĸ"
      ],
      [
        "éĽ",
        "Ĩ"
      ],
      [
        "æ",
        "º"
      ],
      [
        "éĩ",
        "ĳ"
      ],
      [
        "å¼",
        "Ģ"
      ],
      [
        "çķ",
        "¶"
      ],
      [
        "æı",
        "Ĳ"
      ],
      [
        "ç¦",
        "ı"
      ],
      [
        "æŀ",
        "Ĺ"
      ],
      [
        "éķ",
        "·"
      ],
      [
        "ç¨",
        "ĭ"
      ],
      [
        "éĽ",
        "»"
      ],
      [
        "ï¼",
        "Ľ"
      ],
      [
        "èī",
        "²"
      ],
      [
        "éķ",
        "¿"
      ],
      [
        "æĻ",
        "®"
      ],
      [
        "äº",
        "¤"
      ],
      [
        "éĥ",
        "½"
      ],
      [
        "é«",
        "Ķ"
      ],
      [
        "æİ",
        "¥"
      ],
      [
        "è",
        "«"
      ],
      [
        "e",
        "r"
      ],
      [
        "çĽ",
        "¸"
      ],
      [
        "æ",
        "Ĵ"
      ],
      [
        "æĮ",
        "ĩ"
      ],
      [
        "å·",
        "´"
      ],
      [
        "æ",
        "¶"
      ],
      [
        "è",
        "ĳ"
      ],
      [
        "é",
        "£"
      ],
      [
        "åº",
        "ľ"
      ],
      [
        "æ°",
        "´"
      ],
      [
        "åĨ",
        "Ľ"
      ],
      [
        "å¹",
        "¶"
      ],
      [
        "è",
        "į"
      ],
      [
        "æ",
        "į"
      ],
      [
        "çº",
        "¿"
      ],
      [
        "èµ",
        "Ľ"
      ],
      [
        "åĽ",
        "Ľ"
      ],
      [
        "åŁ",
        "İ"
      ],
      [
        "åħ",
        "§"
      ],
      [
        "è",
        "Ĺ"
      ],
      [
        "æī",
        "ĭ"
      ],
      [
        "20",
        "0"
      ],
      [
        "ï¼Ī",
        "ï¼ī"
      ],
      [
        "å",
        "¨"
      ],
      [
        "é",
        "ľ"
      ],
      [
        "å",
        "Ķ"
      ],
      [
        "å",
        "ŀ"
      ],
      [
        "i",
        "n"
      ],
      [
        "æ",
        "¢"
      ],
      [
        "ç¸",
        "£"
      ],
      [
        "è",
        "ĺ"
      ],
      [
        "è»",
        "į"
      ],
      [
        "çĶ",
        "µ"
      ],
      [
        "æķ",
        "¸"
      ],
      [
        "éĿ",
        "ŀ"
      ],
      [
        "æĿ",
        "¥"
      ],
      [
        "é",
        "ĵ"
      ],
      [
        "å¸",
        "¸"
      ],
      [
        "1",
        "8"
      ],
      [
        "é",
        "ħ"
      ],
      [
        "åĲ",
        "ĳ"
      ],
      [
        "çİ",
        "ĭ"
      ],
      [
        "å¯",
        "¹"
      ],
      [
        "è",
        "°"
      ],
      [
        "1",
        "1"
      ],
      [
        "ï¼ī",
        "ãĢĤ"
      ],
      [
        "è¿",
        "Ļ"
      ],
      [
        "åĮ",
        "ħ"
      ],
      [
        "æ",
        "·"
      ],
      [
        "åı",
        "Ĺ"
      ],
      [
        "é¦",
        "Ļ"
      ],
      [
        "ç¶",
        "ĵ"
      ],
      [
        "ç¤",
        "º"
      ],
      [
        "éŁ",
        "³"
      ],
      [
        "éģ",
        "İ"
      ],
      [
        "éĩ",
        "ı"
      ],
      [
        "ä¸",
        "ľ"
      ],
      [
        "åį",
        "¡"
      ],
      [
        "ä¸Ń",
        "åĽ½"
      ],
      [
        "a",
        "n"
      ],
      [
        "o",
        "n"
      ],
      [
        "é",
        "İ"
      ],
      [
        "åŀ",
        "ĭ"
      ],
      [
        "èŃ",
        "°"
      ],
      [
        "å",
        "²"
      ],
      [
        "éĢ",
        "²"
      ],
      [
        "æĽ",
        "¾"
      ],
      [
        "äºŀ",
        "å·ŀ"
      ],
      [
        "é¦",
        "¬"
      ],
      [
        "è¿",
        "Ľ"
      ],
      [
        "çı",
        "¾"
      ],
      [
        "ç",
        "¿"
      ],
      [
        "éĢ",
        "Ļ"
      ],
      [
        "èŃ",
        "¦"
      ],
      [
        "åı",
        "²"
      ],
      [
        "åł",
        "´"
      ],
      [
        "å¦",
        "Ĥ"
      ],
      [
        "æĶ",
        "¹"
      ],
      [
        "åĨ",
        "ħ"
      ],
      [
        "ä¸",
        "ļ"
      ],
      [
        "å§",
        "Ķ"
      ],
      [
        "çģ",
        "£"
      ],
      [
        "ç¾",
        "ħ"
      ],
      [
        "æľ",
        "º"
      ],
      [
        "å§",
        "ĭ"
      ],
      [
        "æľ",
        "ª"
      ],
      [
        "æĦ",
        "ı"
      ],
      [
        "è",
        "±"
      ],
      [
        "ç",
        "ĵ"
      ],
      [
        "ç",
        "¯"
      ],
      [
        "åį",
        "³"
      ],
      [
        "æŁ",
        "¥"
      ],
      [
        "æł",
        "¡"
      ],
      [
        "è",
        "º"
      ],
      [
        "ä½",
        "ĵ"
      ],
      [
        "å½",
        "¢"
      ],
      [
        "å¤",
        "«"
      ],
      [
        "è¯",
        "¥"
      ],
      [
        "ç½",
        "Ĺ"
      ],
      [
        "çł",
        "Ķ"
      ],
      [
        "å®",
        "ĺ"
      ],
      [
        "éİ",
        "®"
      ],
      [
        "å±",
        "Ģ"
      ],
      [
        "ä»",
        "¶"
      ],
      [
        "è¿",
        "Ĳ"
      ],
      [
        "åħ¬",
        "åı¸"
      ],
      [
        "ç¤",
        "¾"
      ],
      [
        "çŁ",
        "¥"
      ],
      [
        "æ´",
        "»"
      ],
      [
        "è³",
        "½"
      ],
      [
        "ç©",
        "į"
      ],
      [
        "é©",
        "¬"
      ],
      [
        "o",
        "r"
      ],
      [
        "å¥",
        "¹"
      ],
      [
        "éĹ",
        "´"
      ],
      [
        "çķ",
        "Į"
      ],
      [
        "ç®",
        "¡"
      ],
      [
        "éģ",
        "Ķ"
      ],
      [
        "åı",
        "į"
      ],
      [
        "è",
        "ĸ"
      ],
      [
        "ä¿",
        "Ŀ"
      ],
      [
        "æ¥",
        "Ń"
      ],
      [
        "ç·",
        "ļ"
      ],
      [
        "é¢",
        "¨"
      ],
      [
        "ç¨",
        "®"
      ],
      [
        "æĮ",
        "ģ"
      ],
      [
        "é¦Ļ",
        "æ¸¯"
      ],
      [
        "å",
        "ĥ"
      ],
      [
        "æ¯",
        "ı"
      ],
      [
        "è¨",
        "Ī"
      ],
      [
        "æĥ",
        "ħ"
      ],
      [
        "è",
        "Ĵ"
      ],
      [
        "19",
        "9"
      ],
      [
        "åı¯",
        "ä»¥"
      ],
      [
        "æĿ",
        "±"
      ],
      [
        "ç",
        "ĳ"
      ],
      [
        "è®",
        "¾"
      ],
      [
        "éĺ",
        "Ł"
      ],
      [
        "è»",
        "Ĭ"
      ],
      [
        "èº",
        "«"
      ],
      [
        "æĹ",
        "ı"
      ],
      [
        "åĵ",
        "ģ"
      ],
      [
        "æĶ¿",
        "åºľ"
      ],
      [
        "è¿",
        "ĩ"
      ],
      [
        "ç©",
        "º"
      ],
      [
        "ç",
        "Ĩ"
      ],
      [
        "æ©",
        "Ł"
      ],
      [
        "çĦ",
        "¶"
      ],
      [
        "äº",
        "Ķ"
      ],
      [
        "éĿ¢",
        "ç©į"
      ],
      [
        "çĽ",
        "´"
      ],
      [
        "å·",
        "²"
      ],
      [
        "åº",
        "§"
      ],
      [
        "èģ",
        "Ķ"
      ],
      [
        "20",
        "2"
      ],
      [
        "åĽ",
        "ŀ"
      ],
      [
        "ç",
        "Ĺ"
      ],
      [
        "éļ",
        "Ĭ"
      ],
      [
        "èı",
        "¯"
      ],
      [
        "çĻ",
        "½"
      ],
      [
        "å°",
        "±"
      ],
      [
        "e",
        "n"
      ],
      [
        "ä¼",
        "Ĭ"
      ],
      [
        "å¥",
        "¥"
      ],
      [
        "èĻ",
        "Ł"
      ],
      [
        "è",
        "Į"
      ],
      [
        "é",
        "¾"
      ],
      [
        "æ¨",
        "Ļ"
      ],
      [
        "ç©",
        "¶"
      ],
      [
        "èĪ",
        "ī"
      ],
      [
        "æĴ",
        "Ń"
      ],
      [
        "ç»",
        "ı"
      ],
      [
        "æ²",
        "³"
      ],
      [
        "åĿ",
        "ĩ"
      ],
      [
        "æ",
        "»"
      ],
      [
        "å",
        "Ļ"
      ],
      [
        "æ´",
        "²"
      ],
      [
        "ç¬¬",
        "ä¸Ģ"
      ],
      [
        "ç§",
        "°"
      ],
      [
        "ç",
        "ĭ"
      ],
      [
        "æķ",
        "°"
      ],
      [
        "ç",
        "ĥ"
      ],
      [
        "å¸",
        "¶"
      ],
      [
        "ç",
        "¼"
      ],
      [
        "å¤",
        "ª"
      ],
      [
        "æĽ",
        "²"
      ],
      [
        "çłĶ",
        "ç©¶"
      ],
      [
        "è¨",
        "Ń"
      ],
      [
        "èģ",
        "¯"
      ],
      [
        "ä½į",
        "æĸ¼"
      ],
      [
        "çı",
        "Ń"
      ],
      [
        "çī",
        "ĩ"
      ],
      [
        "é",
        "Ń"
      ],
      [
        "äº",
        "¬"
      ],
      [
        "æĹ¥",
        "æľ¬"
      ],
      [
        "æ¡",
        "Ī"
      ],
      [
        "æĪ",
        "°"
      ],
      [
        "å°",
        "Ĩ"
      ],
      [
        "éĢ",
        "ł"
      ],
      [
        "åľ°",
        "çļĦ"
      ],
      [
        "æ°",
        "£"
      ],
      [
        "å",
        "³"
      ],
      [
        "æ",
        "ļ"
      ],
      [
        "çİ",
        "°"
      ],
      [
        "ç¸",
        "½"
      ],
      [
        "å±",
        "ķ"
      ],
      [
        "æĶ",
        "¯"
      ],
      [
        "æł",
        "¹"
      ],
      [
        "ç",
        "¹"
      ],
      [
        "é",
        "º"
      ],
      [
        "åħ¶",
        "ä¸Ń"
      ],
      [
        "æĽ",
        "´"
      ],
      [
        "ä½¿",
        "çĶ¨"
      ],
      [
        "æ¨",
        "Ĥ"
      ],
      [
        "å±",
        "¬"
      ],
      [
        "åŃ",
        "£"
      ],
      [
        "æĭ",
        "¬"
      ],
      [
        "ç¨",
        "±"
      ],
      [
        "åľ",
        "º"
      ],
      [
        "åı",
        "ĸ"
      ],
      [
        "æĺ¯",
        "ä¸Ģ"
      ],
      [
        "äº",
        "Ľ"
      ],
      [
        "éĹ",
        "ľ"
      ],
      [
        "éĢ",
        "ī"
      ],
      [
        "çĵ",
        "¦"
      ],
      [
        "ç",
        "ĸ"
      ],
      [
        "æŃ",
        "Į"
      ],
      [
        "æī",
        "ĵ"
      ],
      [
        "å½",
        "ĵ"
      ],
      [
        "æµ",
        "ģ"
      ],
      [
        "åŃ",
        "Ĺ"
      ],
      [
        "ä¿",
        "¡"
      ],
      [
        "a",
        "r"
      ],
      [
        "å",
        "Ħ"
      ],
      [
        "èİ",
        "·"
      ],
      [
        "åı",
        "ĥ"
      ],
      [
        "ç»",
        "´"
      ],
      [
        "åĮħ",
        "æĭ¬"
      ],
      [
        "ç",
        "²"
      ],
      [
        "ä¸Ń",
        "å¿ĥ"
      ],
      [
        "èĺ",
        "Ń"
      ],
      [
        "éİ®",
        "åįĢ"
      ],
      [
        "èĸ",
        "©"
      ],
      [
        "æ",
        "ĩ"
      ],
      [
        "åķ",
        "Ĩ"
      ],
      [
        "è§",
        "£"
      ],
      [
        "åħ",
        "©"
      ],
      [
        "åĬł",
        "åĪ©"
      ],
      [
        "åį",
        "İ"
      ],
      [
        "çį",
        "²"
      ],
      [
        "åħ",
        "°"
      ],
      [
        "é",
        "Į"
      ],
      [
        "19",
        "8"
      ],
      [
        "æ®",
        "µ"
      ],
      [
        "æ",
        "ħ"
      ],
      [
        "åħ",
        "³"
      ],
      [
        "æ³",
        "¢"
      ],
      [
        "æĶ",
        "¶"
      ],
      [
        "è",
        "Ħ"
      ],
      [
        "åı",
        "¤"
      ],
      [
        "ç»",
        "Ħ"
      ],
      [
        "å°",
        "ĳ"
      ],
      [
        "åı",
        "Ĥ"
      ],
      [
        "æĢ",
        "»"
      ],
      [
        "æ",
        "§"
      ],
      [
        "å¤§",
        "åŃ¦"
      ],
      [
        "æĿ",
        "İ"
      ],
      [
        "çĶ",
        "·"
      ],
      [
        "åħ",
        "ī"
      ],
      [
        "3",
        "0"
      ],
      [
        "åĳ",
        "½"
      ],
      [
        "æ±",
        "Ł"
      ],
      [
        "è§",
        "Ĵ"
      ],
      [
        "çµ",
        "±"
      ],
      [
        "æĪ",
        "ĺ"
      ],
      [
        "ç",
        "¢"
      ],
      [
        "åĭ",
        "Ĵ"
      ],
      [
        "ç´",
        "Ħ"
      ],
      [
        "ç",
        "Ŀ"
      ],
      [
        "èĬ",
        "±"
      ],
      [
        "éĥ¨",
        "åĪĨ"
      ],
      [
        "èĩ",
        "º"
      ],
      [
        "æľ",
        "Ŀ"
      ],
      [
        "å®",
        "ĥ"
      ],
      [
        "é»",
        "ŀ"
      ],
      [
        "åį",
        "ĥ"
      ],
      [
        "l",
        "a"
      ],
      [
        "1",
        "5"
      ],
      [
        "ä¸",
        "¤"
      ],
      [
        "1",
        "6"
      ],
      [
        "å¯",
        "Ĩ"
      ],
      [
        "å¡",
        "Ķ"
      ],
      [
        "éĢ",
        "Ł"
      ],
      [
        "ç¶",
        "Ń"
      ],
      [
        "ä»¥",
        "åıĬ"
      ],
      [
        "åĪ",
        "Ŀ"
      ],
      [
        "å¨",
        "ģ"
      ],
      [
        "ç¦ı",
        "å°¼"
      ],
      [
        "åĬłåĪ©",
        "ç¦ıå°¼"
      ],
      [
        "éĽ",
        "·"
      ],
      [
        "æ£",
        "®"
      ],
      [
        "æĵ",
        "ļ"
      ],
      [
        "åĵ",
        "Ī"
      ],
      [
        "åĲ",
        "Ħ"
      ],
      [
        "éĸ",
        "Ģ"
      ],
      [
        "é",
        "¤"
      ],
      [
        "æĶ",
        "¾"
      ],
      [
        "è©²",
        "åľ°çļĦ"
      ],
      [
        "åį",
        "ĩ"
      ],
      [
        "äºº",
        "æ°ĳ"
      ],
      [
        "è¿",
        "ĳ"
      ],
      [
        "çµ",
        "Ħ"
      ],
      [
        "åĬłåĪ©ç¦ıå°¼",
        "äºŀå·ŀ"
      ],
      [
        "è®",
        "¡"
      ],
      [
        "æŀ",
        "ľ"
      ],
      [
        "æ¸",
        "ħ"
      ],
      [
        "å¸",
        "Ń"
      ],
      [
        "åł",
        "±"
      ],
      [
        "éĵ",
        "ģ"
      ],
      [
        "e",
        "s"
      ],
      [
        "åı",
        "·"
      ],
      [
        "æ",
        "¾"
      ],
      [
        "ç§",
        "į"
      ],
      [
        "æ²",
        "Ļ"
      ],
      [
        "åĬ",
        "ĩ"
      ],
      [
        "åĢ",
        "ĳ"
      ],
      [
        "æĺ",
        "Ł"
      ],
      [
        "çĦ",
        "¡"
      ],
      [
        "èĳ",
        "Ĺ"
      ],
      [
        "æ",
        "¿"
      ],
      [
        "1",
        "7"
      ],
      [
        "æ¨",
        "¡"
      ],
      [
        "åĻ",
        "¨"
      ],
      [
        "åİ",
        "»"
      ],
      [
        "é",
        "Ħ"
      ],
      [
        "è",
        "ħ"
      ],
      [
        "åį",
        "ļ"
      ],
      [
        "å®",
        "Į"
      ],
      [
        "çī",
        "Ī"
      ],
      [
        "åľ°",
        "çĲĨ"
      ],
      [
        "çĹ",
        "ħ"
      ],
      [
        "åľ",
        "ĺ"
      ],
      [
        "åħ¶",
        "ä»ĸ"
      ],
      [
        "åī",
        "ĩ"
      ],
      [
        "æ",
        "¹"
      ],
      [
        "åľ°",
        "åįĢ"
      ],
      [
        "å®",
        "£"
      ],
      [
        "èĤ",
        "²"
      ],
      [
        "è¾",
        "¾"
      ],
      [
        "æĭ",
        "Ķ"
      ],
      [
        "çµ",
        "Ĳ"
      ],
      [
        "åħ",
        "Ī"
      ],
      [
        "201",
        "8"
      ],
      [
        "æ",
        "¦"
      ],
      [
        "ç¬¬",
        "äºĮ"
      ],
      [
        "åŁ",
        "ĥ"
      ],
      [
        "è¶",
        "³"
      ],
      [
        "ç¥",
        "¨"
      ],
      [
        "æŃ",
        "¦"
      ],
      [
        "ç",
        "ĩ"
      ],
      [
        "æĬ",
        "¥"
      ],
      [
        "èİ",
        "«"
      ],
      [
        "è±",
        "¡"
      ],
      [
        "æĶ¿",
        "æ²»"
      ],
      [
        "åī",
        "¯"
      ],
      [
        "å¡",
        "ŀ"
      ],
      [
        "ç¥",
        "ŀ"
      ],
      [
        "åĲ",
        "ī"
      ],
      [
        "åį",
        "°"
      ],
      [
        "éģ",
        "ĭ"
      ],
      [
        "èĲ",
        "¨"
      ],
      [
        "çŁ",
        "³"
      ],
      [
        "æ´",
        "¾"
      ],
      [
        "åĳ",
        "Ĭ"
      ],
      [
        "çĨ",
        "±"
      ],
      [
        "æĬ",
        "ķ"
      ],
      [
        "ï¼Ī",
        "ï¼īï¼Į"
      ],
      [
        "ä¾",
        "Ľ"
      ],
      [
        "æĬ",
        "Ģ"
      ],
      [
        "å·¥",
        "ä½ľ"
      ],
      [
        "1",
        "3"
      ],
      [
        "åĽ",
        "¢"
      ],
      [
        "ä¸ĸ",
        "çķĮ"
      ],
      [
        "åĸ",
        "®"
      ],
      [
        "å¹³",
        "æĸ¹"
      ],
      [
        "ä¸",
        "Ķ"
      ],
      [
        "å¾",
        "Ģ"
      ],
      [
        "åŁ",
        "Ł"
      ],
      [
        "åħ",
        "Ń"
      ],
      [
        "è¦",
        "ĸ"
      ],
      [
        "å¾",
        "ŀ"
      ],
      [
        "å¯",
        "¦"
      ],
      [
        "i",
        "c"
      ],
      [
        "è¡¨",
        "ç¤º"
      ],
      [
        "äº",
        "¦"
      ],
      [
        "ç",
        "Ĭ"
      ],
      [
        "ä»",
        "¬"
      ],
      [
        "åĬ",
        "¡"
      ],
      [
        "ä¸»",
        "è¦ģ"
      ],
      [
        "è£",
        "½"
      ],
      [
        "é«ĺ",
        "åº¦"
      ],
      [
        "æĸ",
        "½"
      ],
      [
        "æ±",
        "Ĥ"
      ],
      [
        "ç»",
        "Ł"
      ],
      [
        "ä½",
        "ı"
      ],
      [
        "ä»",
        "½"
      ],
      [
        "ä¹",
        "Ĳ"
      ],
      [
        "çº",
        "§"
      ],
      [
        "ä¾",
        "ĭ"
      ],
      [
        "æµ·",
        "æĭĶ"
      ],
      [
        "å°",
        "Ī"
      ],
      [
        "åĬ",
        "Ł"
      ],
      [
        "a",
        "l"
      ],
      [
        "ä¹",
        "¦"
      ],
      [
        "åĭ",
        "Ļ"
      ],
      [
        "é",
        "½"
      ],
      [
        "æ´",
        "Ľ"
      ],
      [
        "1",
        "4"
      ],
      [
        "ä¼",
        "¯"
      ],
      [
        "ä»",
        "¤"
      ],
      [
        "åĨ",
        "į"
      ],
      [
        "è§",
        "Ĩ"
      ],
      [
        "ä»",
        "İ"
      ],
      [
        "å°",
        "º"
      ],
      [
        "åİ",
        "Ĩ"
      ],
      [
        "æİ",
        "¨"
      ],
      [
        "åİ",
        "¿"
      ],
      [
        "å§",
        "Ĩ"
      ],
      [
        "èª",
        "į"
      ],
      [
        "æľ",
        "į"
      ],
      [
        "å¤§",
        "åŃ¸"
      ],
      [
        "å¸",
        "Į"
      ],
      [
        "åı",
        "Ī"
      ],
      [
        "ä¸Ģ",
        "ä¸ª"
      ],
      [
        "ä¿",
        "®"
      ],
      [
        "å¼",
        "ķ"
      ],
      [
        "å®",
        "¢"
      ],
      [
        "19",
        "7"
      ],
      [
        "åĳ",
        "¨"
      ],
      [
        "åħ",
        "ļ"
      ],
      [
        "å¥",
        "§"
      ],
      [
        "è®",
        "®"
      ],
      [
        "19",
        "4"
      ],
      [
        "19",
        "5"
      ],
      [
        "ç¾İ",
        "åĽ½"
      ],
      [
        "éģ",
        "Ĭ"
      ],
      [
        "é»",
        "¨"
      ],
      [
        "æİ",
        "Ĵ"
      ],
      [
        "èĭ",
        "ı"
      ],
      [
        "çĶ",
        "¢"
      ],
      [
        "éķ",
        "ĩ"
      ],
      [
        "å®",
        "ŀ"
      ],
      [
        "å¹³",
        "åĿĩ"
      ],
      [
        "æµ·æĭĶ",
        "é«ĺåº¦"
      ],
      [
        "åı",
        "ª"
      ],
      [
        "åº",
        "Ķ"
      ],
      [
        "é»",
        "ĳ"
      ],
      [
        "ä½",
        "İ"
      ],
      [
        "å¸",
        "Ŀ"
      ],
      [
        "é",
        "Ĳ"
      ],
      [
        "æĿ",
        "ĳ"
      ],
      [
        "æĩ",
        "ī"
      ],
      [
        "åį",
        "Ī"
      ],
      [
        "éĻ",
        "¤"
      ],
      [
        "å±",
        "ŀ"
      ],
      [
        "æ³",
        "°"
      ],
      [
        "åħ",
        "«"
      ],
      [
        "é",
        "Ĵ"
      ],
      [
        "åħ",
        "µ"
      ],
      [
        "å°",
        "İ"
      ],
      [
        "è¯",
        "Ń"
      ],
      [
        "çº",
        "¦"
      ],
      [
        "ç»",
        "ĵ"
      ],
      [
        "éĻ",
        "¸"
      ],
      [
        "äº",
        "§"
      ],
      [
        "è³",
        "ĩ"
      ],
      [
        "20",
        "20"
      ],
      [
        "æŃ",
        "»"
      ],
      [
        "å±",
        "ħ"
      ],
      [
        "ç¾",
        "©"
      ],
      [
        "a",
        "t"
      ],
      [
        "å¸",
        "Ī"
      ],
      [
        "éĿ¢ç©į",
        "çĤº"
      ],
      [
        "èĬ",
        "Ĥ"
      ],
      [
        "å¯",
        "Ł"
      ],
      [
        "éĺ",
        "²"
      ],
      [
        "i",
        "s"
      ],
      [
        "åħ",
        "·"
      ],
      [
        "æº",
        "Ĳ"
      ],
      [
        "åľ",
        "Ł"
      ],
      [
        "æį",
        "®"
      ],
      [
        "ç½",
        "®"
      ],
      [
        "ç",
        "¡"
      ],
      [
        "19",
        "6"
      ],
      [
        "åĶ",
        "±"
      ],
      [
        "å¥",
        "ĩ"
      ],
      [
        "æķ",
        "ħ"
      ],
      [
        "åı¯",
        "èĥ½"
      ],
      [
        "å¢",
        "ĥ"
      ],
      [
        "æĪ",
        "¿"
      ],
      [
        "ï¼Ī",
        "ï¼Į"
      ],
      [
        "çµ",
        "¦"
      ],
      [
        "ä½",
        "ķ"
      ],
      [
        "å¯",
        "¼"
      ],
      [
        "çļĦä¸Ģ",
        "åĢĭ"
      ],
      [
        "åĤ",
        "³"
      ],
      [
        "åŃ",
        "ĺ"
      ],
      [
        "åľ",
        "Ĵ"
      ],
      [
        "å®",
        "¤"
      ],
      [
        "çİ",
        "ĩ"
      ],
      [
        "è£",
        "Ķ"
      ],
      [
        "è",
        "¬"
      ],
      [
        "ä¹",
        "ī"
      ],
      [
        "åĽ½",
        "å®¶"
      ],
      [
        "ç",
        "ª"
      ],
      [
        "èĴ",
        "Ĥ"
      ],
      [
        "èĲ",
        "¥"
      ],
      [
        "e",
        "l"
      ],
      [
        "åľ",
        "ĸ"
      ],
      [
        "éĿ",
        "Ĵ"
      ],
      [
        "åĬ",
        "©"
      ],
      [
        "è¶",
        "ħ"
      ],
      [
        "é",
        "Ĩ"
      ],
      [
        "æģ",
        "©"
      ],
      [
        "å·¥",
        "ç¨ĭ"
      ],
      [
        "çį",
        "İ"
      ],
      [
        "ä»",
        "Ĭ"
      ],
      [
        "å¥",
        "½"
      ],
      [
        "é",
        "Ķ"
      ],
      [
        "ç´",
        "į"
      ],
      [
        "éĻ",
        "Ĳ"
      ],
      [
        "çĻ",
        "»"
      ],
      [
        "2",
        "5"
      ],
      [
        "èĲ",
        "¬"
      ],
      [
        "Ġ",
        "S"
      ],
      [
        "è¨",
        "Ģ"
      ],
      [
        "èĩ",
        "´"
      ],
      [
        "å",
        "ĺ"
      ],
      [
        "å¸",
        "«"
      ],
      [
        "åŃ¦",
        "éĻ¢"
      ],
      [
        "æĪ",
        "ĳ"
      ],
      [
        "èİ·",
        "å¾Ĺ"
      ],
      [
        "åı",
        "¦"
      ],
      [
        "ä½",
        "Ľ"
      ],
      [
        "ç´",
        "ļ"
      ],
      [
        "åĸ",
        "¬"
      ],
      [
        "æĹ",
        "©"
      ],
      [
        "ä¸Ģ",
        "åĢĭ"
      ],
      [
        "é¡",
        "ŀ"
      ],
      [
        "å",
        "©"
      ],
      [
        "çī",
        "Ļ"
      ],
      [
        "æĸ¯",
        "çī¹"
      ],
      [
        "éĢ",
        "£"
      ],
      [
        "ä»£",
        "è¡¨"
      ],
      [
        "éĻ",
        "į"
      ],
      [
        "ä½į",
        "äºİ"
      ],
      [
        "æĹ",
        "ł"
      ],
      [
        "èĻ",
        "ķ"
      ],
      [
        "æĻ",
        "ļ"
      ],
      [
        "å¼",
        "µ"
      ],
      [
        "éļ",
        "Ľ"
      ],
      [
        "è«",
        "ĸ"
      ],
      [
        "å·",
        "±"
      ],
      [
        "çķ",
        "«"
      ],
      [
        "ä¿",
        "Ħ"
      ],
      [
        "ä¹",
        "Ŀ"
      ],
      [
        "é",
        "ª"
      ],
      [
        "å¾",
        "ĭ"
      ],
      [
        "æļ",
        "´"
      ],
      [
        "åº",
        "·"
      ],
      [
        "åľĭ",
        "å®¶"
      ],
      [
        "æľ",
        "¯"
      ],
      [
        "é¢",
        "Ĩ"
      ],
      [
        "Ġ",
        "C"
      ],
      [
        "è¿",
        "ª"
      ],
      [
        "èĭ±",
        "å°º"
      ],
      [
        "é¾",
        "į"
      ],
      [
        "ç",
        "ħ"
      ],
      [
        "çĨ±",
        "å¸¶"
      ],
      [
        "æ",
        "Ĳ"
      ],
      [
        "åĨ",
        "ł"
      ],
      [
        "çļ",
        "Ĩ"
      ],
      [
        "æ´",
        "ĭ"
      ],
      [
        "æĸĩ",
        "åĮĸ"
      ],
      [
        "å¹",
        "¿"
      ],
      [
        "åģ",
        "ľ"
      ],
      [
        "ä¸",
        "ĥ"
      ],
      [
        "ä¸",
        "ĵ"
      ],
      [
        "ä¸",
        "ģ"
      ],
      [
        "çļĦ",
        "åº§"
      ],
      [
        "èĢ",
        "ĥ"
      ],
      [
        "æĪĲ",
        "ç«ĭ"
      ],
      [
        "åĽł",
        "æŃ¤"
      ],
      [
        "å¢",
        "ŀ"
      ],
      [
        "ç",
        "Ĵ"
      ],
      [
        "çĳ",
        "ŀ"
      ],
      [
        "è",
        "ĵ"
      ],
      [
        "ç½",
        "ĳ"
      ],
      [
        "æĦ",
        "Ł"
      ],
      [
        "c",
        "h"
      ],
      [
        "èª",
        "ŀ"
      ],
      [
        "ä»ĸ",
        "çļĦ"
      ],
      [
        "æ¨Ļ",
        "çĤº"
      ],
      [
        "ç´",
        "¢"
      ],
      [
        "ä½įæĸ¼",
        "ç¾İåľĭ"
      ],
      [
        "è®",
        "¤"
      ],
      [
        "ç¼",
        "ĸ"
      ],
      [
        "é",
        "Ĭ"
      ],
      [
        "æľ",
        "Ĺ"
      ],
      [
        "åį",
        "ķ"
      ],
      [
        "èª",
        "ª"
      ],
      [
        "åĿ",
        "¦"
      ],
      [
        "çģ",
        "«"
      ],
      [
        "çļĦåº§",
        "æ¨ĻçĤº"
      ],
      [
        "ä¸Ń",
        "åľĭ"
      ],
      [
        "æŃ",
        "²"
      ],
      [
        "çĤ",
        "¹"
      ],
      [
        "å¤",
        "®"
      ],
      [
        "æ¶",
        "Ī"
      ],
      [
        "l",
        "e"
      ],
      [
        "å¤",
        "Ħ"
      ],
      [
        "ç¾",
        "¤"
      ],
      [
        "èī",
        "¦"
      ],
      [
        "éľ",
        "Ģ"
      ],
      [
        "æŃ",
        "·"
      ],
      [
        "æķ",
        "´"
      ],
      [
        "éĸĭ",
        "å§ĭ"
      ],
      [
        "f",
        "or"
      ],
      [
        "201",
        "0"
      ],
      [
        "é",
        "²"
      ],
      [
        "u",
        "r"
      ],
      [
        "æ",
        "½"
      ],
      [
        "çĶ",
        "°"
      ],
      [
        "ç¯",
        "Ģ"
      ],
      [
        "æŃ",
        "¥"
      ],
      [
        "ç§",
        "»"
      ],
      [
        "å®",
        "¹"
      ],
      [
        "ç®",
        "Ĺ"
      ],
      [
        "ä¸",
        "¾"
      ],
      [
        "æĵ",
        "Ĭ"
      ],
      [
        "åī",
        "µ"
      ],
      [
        "æ¸",
        "¸"
      ],
      [
        "çĻ",
        "¾"
      ],
      [
        "ãĢį",
        "ï¼Į"
      ],
      [
        "èµ",
        "Ħ"
      ],
      [
        "æ¯",
        "į"
      ],
      [
        "ç±",
        "»"
      ],
      [
        "è¡",
        "Ĺ"
      ],
      [
        "æģ",
        "¯"
      ],
      [
        "éł",
        "Ń"
      ],
      [
        "èĹ",
        "Ŀ"
      ],
      [
        "åįĥ",
        "ç±³"
      ],
      [
        "æİ",
        "§"
      ],
      [
        "çľ",
        "Ł"
      ],
      [
        "çº",
        "³"
      ],
      [
        "è¶",
        "Ĭ"
      ],
      [
        "äºĭ",
        "ä»¶"
      ],
      [
        "èĲ",
        "½"
      ],
      [
        "éĤ",
        "£"
      ],
      [
        "æĺ",
        "ĵ"
      ],
      [
        "å¤",
        "ı"
      ],
      [
        "çĶ",
        "²"
      ],
      [
        "ä¸Ń",
        "å¤®"
      ],
      [
        "åį",
        "Ĭ"
      ],
      [
        "ç¾",
        "½"
      ],
      [
        "å°ĩ",
        "åħ¶"
      ],
      [
        "2",
        "4"
      ],
      [
        "èĩª",
        "å·±"
      ],
      [
        "é¡",
        "¹"
      ],
      [
        "å¤",
        "±"
      ],
      [
        "èģ",
        "·"
      ],
      [
        "æĦ",
        "Ľ"
      ],
      [
        "å»",
        "£"
      ],
      [
        "è§",
        "Ģ"
      ],
      [
        "å³",
        "¶"
      ],
      [
        "éħ",
        "į"
      ],
      [
        "m",
        "u"
      ],
      [
        "æĺ¯",
        "ä½įæĸ¼ç¾İåľĭ"
      ],
      [
        "åĪ",
        "¥"
      ],
      [
        "ç¸£",
        "çļĦä¸ĢåĢĭ"
      ],
      [
        "i",
        "t"
      ],
      [
        "ä¸Ń",
        "çļĦ"
      ],
      [
        "çº",
        "ª"
      ],
      [
        "æİ",
        "Ī"
      ],
      [
        "å¹³æĸ¹",
        "åįĥç±³"
      ],
      [
        "åĢ",
        "«"
      ],
      [
        "æ",
        "ĳ"
      ],
      [
        "æĵ",
        "Ķ"
      ],
      [
        "æ¯",
        "Ľ"
      ],
      [
        "åħ±",
        "åĴĮ"
      ],
      [
        "æ¾",
        "³"
      ],
      [
        "åĸ¬",
        "æ²»"
      ],
      [
        "å¼",
        "Ĺ"
      ],
      [
        "è¦",
        "ª"
      ],
      [
        "è¿Ľ",
        "è¡Į"
      ],
      [
        "æī",
        "ĺ"
      ],
      [
        "ç´",
        "ł"
      ],
      [
        "çľ",
        "¾"
      ],
      [
        "å¿",
        "Ĺ"
      ],
      [
        "2",
        "2"
      ],
      [
        "è¿",
        "ĺ"
      ],
      [
        "è®",
        "°"
      ],
      [
        "è©",
        "ķ"
      ],
      [
        "æĪĲ",
        "çĤº"
      ],
      [
        "æī",
        "¹"
      ],
      [
        "çº",
        "Į"
      ],
      [
        "éĤ",
        "Ĭ"
      ],
      [
        "å¼",
        "ł"
      ],
      [
        "éĲ",
        "µ"
      ],
      [
        "æ±",
        "º"
      ],
      [
        "è¾",
        "¦"
      ],
      [
        "è",
        "Ľ"
      ],
      [
        "çķ",
        "Ļ"
      ],
      [
        "åı°",
        "çģ£"
      ],
      [
        "æĭ",
        "ħ"
      ],
      [
        "èİ",
        "±"
      ],
      [
        "æĽ",
        "¼"
      ],
      [
        "é¡",
        "Į"
      ],
      [
        "âĢĿ",
        "ãĢĤ"
      ],
      [
        "éĢ²",
        "è¡Į"
      ],
      [
        "èĢ",
        "ģ"
      ],
      [
        "ç«",
        "ł"
      ],
      [
        "æĬ",
        "Ĺ"
      ],
      [
        "æŃ£",
        "å¼ı"
      ],
      [
        "çį²",
        "å¾Ĺ"
      ],
      [
        "ä¾",
        "¿"
      ],
      [
        "å®",
        "Ĺ"
      ],
      [
        "ç´",
        "Ģ"
      ],
      [
        "èĩº",
        "çģ£"
      ],
      [
        "åł",
        "¡"
      ],
      [
        "ä¸",
        "¹"
      ],
      [
        "ä¸",
        "ĩ"
      ],
      [
        "å°",
        "Ħ"
      ],
      [
        "å¾",
        "Ī"
      ],
      [
        "æŀ",
        "Ħ"
      ],
      [
        "éł",
        "ĺ"
      ],
      [
        "æĻ®",
        "æŁ¥"
      ],
      [
        "åĥ",
        "ı"
      ],
      [
        "åī",
        "§"
      ],
      [
        "èĥ",
        "ŀ"
      ],
      [
        "æĽ",
        "¸"
      ],
      [
        "äººåı£",
        "æĻ®æŁ¥"
      ],
      [
        "æľ",
        "¨"
      ],
      [
        "è¿",
        "°"
      ],
      [
        "å¼",
        "·"
      ],
      [
        "æĿ",
        "ĥ"
      ],
      [
        "è¯",
        "´"
      ],
      [
        "è½",
        "ī"
      ],
      [
        "è£",
        "Ŀ"
      ],
      [
        "éĽ»",
        "å½±"
      ],
      [
        "h",
        "e"
      ],
      [
        "æ",
        "Ĥ"
      ],
      [
        "åĪ",
        "«"
      ],
      [
        "æıĲ",
        "ä¾Ľ"
      ],
      [
        "åĸ¬æ²»",
        "äºŀå·ŀ"
      ],
      [
        "ç",
        "°"
      ],
      [
        "æŀ",
        "¶"
      ],
      [
        "èĤ",
        "¯"
      ],
      [
        "ç¬¬",
        "ä¸ī"
      ],
      [
        "æīĢ",
        "æľī"
      ],
      [
        "è°",
        "ĥ"
      ],
      [
        "a",
        "m"
      ],
      [
        "éĻ",
        "³"
      ],
      [
        "mu",
        "la"
      ],
      [
        "çĽ",
        "Ł"
      ],
      [
        "éĹ",
        "¨"
      ],
      [
        "æ¹",
        "ĸ"
      ],
      [
        "åħ",
        "¸"
      ],
      [
        "èĪ",
        "ª"
      ],
      [
        "for",
        "mula"
      ],
      [
        "ãĢĭ",
        "ï¼Į"
      ],
      [
        "2",
        "3"
      ],
      [
        "æł¹",
        "æĵļ"
      ],
      [
        "i",
        "l"
      ],
      [
        "æ·",
        "±"
      ],
      [
        "åĪ",
        "¤"
      ],
      [
        "å»º",
        "åĪ¶"
      ],
      [
        "æµ·æĭĶé«ĺåº¦",
        "çĤº"
      ],
      [
        "åĨ",
        "³"
      ],
      [
        "e",
        "t"
      ],
      [
        "ä¾",
        "Ŀ"
      ],
      [
        "éĮ",
        "Ħ"
      ],
      [
        "éł",
        "ĵ"
      ],
      [
        "è©²åľ°çļĦ",
        "å¹³åĿĩ"
      ],
      [
        "è©²åľ°çļĦå¹³åĿĩ",
        "æµ·æĭĶé«ĺåº¦çĤº"
      ],
      [
        "r",
        "o"
      ],
      [
        "å",
        "´"
      ],
      [
        "èĢĮ",
        "è©²åľ°çļĦå¹³åĿĩæµ·æĭĶé«ĺåº¦çĤº"
      ],
      [
        "ç·",
        "¨"
      ],
      [
        "éĻ",
        "ħ"
      ],
      [
        "æł",
        "ĩ"
      ],
      [
        "æ",
        "¤"
      ],
      [
        "ä¼",
        "ł"
      ],
      [
        "Ġ",
        "A"
      ],
      [
        "èĲ",
        "Ĭ"
      ],
      [
        "ãĢį",
        "ãĢĤ"
      ],
      [
        "Ġ",
        "M"
      ],
      [
        "åĩ",
        "»"
      ],
      [
        "å¼Ģ",
        "å§ĭ"
      ],
      [
        "èª",
        "¿"
      ],
      [
        "éŁ³",
        "æ¨Ĥ"
      ],
      [
        "åľĭ",
        "éļĽ"
      ],
      [
        "ä¸į",
        "åĲĮ"
      ],
      [
        "è®",
        "Ĭ"
      ],
      [
        "è¦",
        "ĭ"
      ],
      [
        "åİĨ",
        "åı²"
      ],
      [
        "æŃ",
        "¢"
      ],
      [
        "æ²",
        "ĥ"
      ],
      [
        "çļ",
        "ĩ"
      ],
      [
        "ä»",
        "į"
      ],
      [
        "è¡",
        "ĵ"
      ],
      [
        "åĮĹ",
        "äº¬"
      ],
      [
        "æ§",
        "ĭ"
      ],
      [
        "çª",
        "ģ"
      ],
      [
        "âĢ",
        "Ķ"
      ],
      [
        "éĽ",
        "¢"
      ],
      [
        "è«",
        "¾"
      ],
      [
        "æ°ĳ",
        "ä¸»"
      ],
      [
        "è¨",
        "ĺ"
      ],
      [
        "è§",
        "Ħ"
      ],
      [
        "å¿",
        "µ"
      ],
      [
        "æĻ",
        "¯"
      ],
      [
        "2",
        "1"
      ],
      [
        "æ¢",
        "Ŀ"
      ],
      [
        "19",
        "3"
      ],
      [
        "ä¹ĭ",
        "ä¸Ģ"
      ],
      [
        "è½¦",
        "ç«Ļ"
      ],
      [
        "åĽ",
        "¾"
      ],
      [
        "æ²",
        "Ĵ"
      ],
      [
        "èĴ",
        "Ļ"
      ],
      [
        "åľ",
        "£"
      ],
      [
        "æĹ",
        "ħ"
      ],
      [
        "ï¼ī",
        "ãĢģ"
      ],
      [
        "æĭħ",
        "ä»»"
      ],
      [
        "s",
        "t"
      ],
      [
        "éļ",
        "¨"
      ],
      [
        "å¹´",
        "çļĦ"
      ],
      [
        "2",
        "8"
      ],
      [
        "å²",
        "Ľ"
      ],
      [
        "ä½ľ",
        "åĵģ"
      ],
      [
        "æ¬",
        "Ĭ"
      ],
      [
        "å§Ķ",
        "åĳĺ"
      ],
      [
        "ä»ĸ",
        "åĢĳ"
      ],
      [
        "201",
        "7"
      ],
      [
        "è¼",
        "¯"
      ],
      [
        "é¤",
        "¨"
      ],
      [
        "éĵģ",
        "è·¯"
      ],
      [
        "åı",
        "ĭ"
      ],
      [
        "çĪ",
        "¶"
      ],
      [
        "éĻ",
        "Ħ"
      ],
      [
        "æĪĲ",
        "ä¸º"
      ],
      [
        "åķ",
        "ı"
      ],
      [
        "åŁİ",
        "å¸Ĥ"
      ],
      [
        "æĶ¯",
        "æĮģ"
      ],
      [
        "è¿",
        "ŀ"
      ],
      [
        "æ¢",
        "ħ"
      ],
      [
        "å·",
        "Ŀ"
      ],
      [
        "è¨",
        "±"
      ],
      [
        "çĶŁ",
        "å¹³"
      ],
      [
        "éĤ",
        "Ħ"
      ],
      [
        "æĿ",
        "¡"
      ],
      [
        "èı",
        "²"
      ],
      [
        "è¿Ĳ",
        "åĬ¨"
      ],
      [
        "éĨ",
        "«"
      ],
      [
        "èī",
        "¾"
      ],
      [
        "éĽ",
        "Ļ"
      ],
      [
        "æł¼",
        "çĤº"
      ],
      [
        "æĥ",
        "³"
      ],
      [
        "èĺ",
        "ĩ"
      ],
      [
        "æľª",
        "çŁ¥"
      ],
      [
        "æķ",
        "Ī"
      ],
      [
        "æĵĶ",
        "ä»»"
      ],
      [
        "å",
        "ª"
      ],
      [
        "éļ",
        "ı"
      ],
      [
        "èį",
        "ī"
      ],
      [
        "æľ",
        "±"
      ],
      [
        "æī",
        "į"
      ],
      [
        "å¥³",
        "åŃĲ"
      ],
      [
        "èģ",
        "Į"
      ],
      [
        "åĪ",
        "Ľ"
      ],
      [
        "æī",
        "¿"
      ],
      [
        "åĵ",
        "¥"
      ],
      [
        "çĴ",
        "°"
      ],
      [
        "åľ°",
        "åĮº"
      ],
      [
        "åĨ",
        "ľ"
      ],
      [
        "éĿ",
        "©"
      ],
      [
        "éĢļ",
        "è¿ĩ"
      ],
      [
        "æķĻ",
        "èĤ²"
      ],
      [
        "åĪ",
        "Ĵ"
      ],
      [
        "éŁ",
        "ĵ"
      ],
      [
        "åĺ",
        "ī"
      ],
      [
        "2",
        "7"
      ],
      [
        "éģ¸",
        "èĪī"
      ],
      [
        "åĢ",
        "¼"
      ],
      [
        "éĢ",
        "Ģ"
      ],
      [
        "åº",
        "ĵ"
      ],
      [
        "åº",
        "Ń"
      ],
      [
        "è®",
        "º"
      ],
      [
        "Ġ",
        "P"
      ],
      [
        "äº¤",
        "éĢļ"
      ],
      [
        "äºº",
        "æľī"
      ],
      [
        "äº",
        "Ī"
      ],
      [
        "çĭ",
        "Ģ"
      ],
      [
        "åĴĮ",
        "äººåı£"
      ],
      [
        "éĿŀ",
        "å»ºåĪ¶"
      ],
      [
        "2",
        "6"
      ],
      [
        "éĿ¢ç©į",
        "åĴĮäººåı£"
      ],
      [
        "è©²åľ°çļĦ",
        "éĿ¢ç©įåĴĮäººåı£"
      ],
      [
        "çļĨ",
        "æľªçŁ¥"
      ],
      [
        "ç¸£çļĦä¸ĢåĢĭ",
        "éĿŀå»ºåĪ¶"
      ],
      [
        "è©²åľ°çļĦéĿ¢ç©įåĴĮäººåı£",
        "çļĨæľªçŁ¥"
      ],
      [
        "ç¸£çļĦä¸ĢåĢĭéĿŀå»ºåĪ¶",
        "åľ°åįĢ"
      ],
      [
        "ä¸Ĭ",
        "çļĦ"
      ],
      [
        "è¥¿",
        "çıŃ"
      ],
      [
        "è¥¿çıŃ",
        "çīĻ"
      ],
      [
        "å£",
        "ĵ"
      ],
      [
        "éł",
        "ħ"
      ],
      [
        "æĪ",
        "²"
      ],
      [
        "ç®¡",
        "çĲĨ"
      ],
      [
        "èģ",
        "ĸ"
      ],
      [
        "çĿ",
        "Ģ"
      ],
      [
        "ä½",
        "³"
      ],
      [
        "åį",
        "ı"
      ],
      [
        "æµ",
        "İ"
      ],
      [
        "201",
        "5"
      ],
      [
        "è£Ķ",
        "ç¾İåľĭ"
      ],
      [
        "åį",
        "Ķ"
      ],
      [
        "åĩ",
        "Ĩ"
      ],
      [
        "çĩ",
        "Ł"
      ],
      [
        "å½",
        "Ī"
      ],
      [
        "ä¸Ĭ",
        "æµ·"
      ],
      [
        "æ§",
        "į"
      ],
      [
        "ç´",
        "°"
      ],
      [
        "é",
        "§"
      ],
      [
        "åĬ",
        "ŀ"
      ],
      [
        "è¡",
        "Ģ"
      ],
      [
        "èŃ°",
        "åĵ¡"
      ],
      [
        "æľŁ",
        "éĸĵ"
      ],
      [
        "é¦",
        "Ĩ"
      ],
      [
        "å·",
        "¦"
      ],
      [
        "æ°",
        "ı"
      ],
      [
        "éĽ",
        "Ħ"
      ],
      [
        "å®",
        "Ī"
      ],
      [
        "èĪ",
        "¹"
      ],
      [
        "ç½",
        "²"
      ],
      [
        "èªį",
        "çĤº"
      ],
      [
        "æĺ",
        "¥"
      ],
      [
        "å¸",
        "ķ"
      ],
      [
        "ç¶",
        "²"
      ],
      [
        "å¹´",
        "ä»£"
      ],
      [
        "éŁ",
        "¿"
      ],
      [
        "ä»ĸ",
        "ä»¬"
      ],
      [
        "å»",
        "¶"
      ],
      [
        "201",
        "6"
      ],
      [
        "åĮ",
        "»"
      ],
      [
        "ä¼",
        "¼"
      ],
      [
        "æĻĤ",
        "éĸĵ"
      ],
      [
        "æľĢ",
        "é«ĺ"
      ],
      [
        "é£",
        "Ł"
      ],
      [
        "åį°",
        "åº¦"
      ],
      [
        "åħ¬",
        "éĩĮ"
      ],
      [
        "é»",
        "ĥ"
      ],
      [
        "åº",
        "ķ"
      ],
      [
        "éĽ»",
        "è¦ĸ"
      ],
      [
        "é²",
        "ģ"
      ],
      [
        "åĬ",
        "ĥ"
      ],
      [
        "çĶŁ",
        "æ´»"
      ],
      [
        "éĤ",
        "¦"
      ],
      [
        "r",
        "e"
      ],
      [
        "æĶ",
        "»"
      ],
      [
        "æĢ",
        "Ŀ"
      ],
      [
        "2",
        "9"
      ],
      [
        "æĸ",
        "Ļ"
      ],
      [
        "èĢ",
        "¶"
      ],
      [
        "èģ",
        "²"
      ],
      [
        "è½",
        "¬"
      ],
      [
        "ç½",
        "ª"
      ],
      [
        "è³",
        "ª"
      ],
      [
        "ç",
        "Į"
      ],
      [
        "éļ",
        "Ĩ"
      ],
      [
        "4",
        "0"
      ],
      [
        "o",
        "u"
      ],
      [
        "éģ¸",
        "åįĢ"
      ],
      [
        "é¾",
        "Ļ"
      ],
      [
        "5",
        "0"
      ],
      [
        "ä½",
        "©"
      ],
      [
        "éĹ",
        "®"
      ],
      [
        "çħ",
        "§"
      ],
      [
        "æŃ",
        "Ĳ"
      ],
      [
        "çļ",
        "®"
      ],
      [
        "èĥ",
        "Į"
      ],
      [
        "å¿",
        "«"
      ],
      [
        "æĹ",
        "ĭ"
      ],
      [
        "æĬ",
        "Ĭ"
      ],
      [
        "æ©",
        "ĭ"
      ],
      [
        "åĲ",
        "«"
      ],
      [
        "çī",
        "Į"
      ],
      [
        "é¢",
        "ĺ"
      ],
      [
        "âĢĿ",
        "ï¼Į"
      ],
      [
        "00",
        "0"
      ],
      [
        "èį",
        "£"
      ],
      [
        "æ²Ĵ",
        "æľī"
      ],
      [
        "åª",
        "Ĵ"
      ],
      [
        "åĲĮ",
        "æĻĤ"
      ],
      [
        "éł",
        "Ĳ"
      ],
      [
        "åıĤ",
        "åĬł"
      ],
      [
        "å°Ī",
        "è¼¯"
      ],
      [
        "åħ",
        "Ĵ"
      ],
      [
        "æĹ",
        "Ĺ"
      ],
      [
        "ç»",
        "Ī"
      ],
      [
        "èĪ",
        "Ī"
      ],
      [
        "å¹",
        "²"
      ],
      [
        "æ²",
        "¡"
      ],
      [
        "çľ",
        "ĭ"
      ],
      [
        "åĲĮ",
        "å¹´"
      ],
      [
        "åĶ",
        "®"
      ],
      [
        "äºº",
        "çļĦ"
      ],
      [
        "åĬ",
        "³"
      ],
      [
        "çĽ",
        "Ľ"
      ],
      [
        "åĢ",
        "Ļ"
      ],
      [
        "æł",
        "¸"
      ],
      [
        "å®Į",
        "æĪĲ"
      ],
      [
        "æĭ",
        "į"
      ],
      [
        "ç",
        "£"
      ],
      [
        "å±",
        "Ĩ"
      ],
      [
        "æĸ¯",
        "å·ŀ"
      ],
      [
        "çµ",
        "Ĥ"
      ],
      [
        "éŃ",
        "ļ"
      ],
      [
        "å°",
        "ļ"
      ],
      [
        "éĽ",
        "ħ"
      ],
      [
        "åĬł",
        "åħ¥"
      ],
      [
        "Ġ",
        "T"
      ],
      [
        "å¤",
        "į"
      ],
      [
        "åį",
        "«"
      ],
      [
        "å¸",
        "¦"
      ],
      [
        "éģ",
        "Ń"
      ],
      [
        "çĪ",
        "Ń"
      ],
      [
        "çĶµ",
        "è§Ĩ"
      ],
      [
        "è°",
        "·"
      ],
      [
        "åħ±åĴĮ",
        "åĽ½"
      ],
      [
        "æĿ",
        "Ģ"
      ],
      [
        "çİ",
        "¯"
      ],
      [
        "o",
        "l"
      ],
      [
        "æĭ",
        "¿"
      ],
      [
        "æµ",
        "ĭ"
      ],
      [
        "çĶ±",
        "æĸ¼"
      ],
      [
        "å¥³",
        "æĢ§"
      ],
      [
        "202",
        "1"
      ],
      [
        "çļĦ",
        "äºº"
      ],
      [
        "å¤",
        "´"
      ],
      [
        "å¯",
        "Į"
      ],
      [
        "é½",
        "¡"
      ],
      [
        "æ¤",
        "į"
      ],
      [
        "ä½",
        "ł"
      ],
      [
        "å·",
        "¡"
      ],
      [
        "æ³ķ",
        "åĽ½"
      ],
      [
        "çŃ",
        "ĸ"
      ],
      [
        "èĮ",
        "ĥ"
      ],
      [
        "åı",
        "ĺ"
      ],
      [
        "åĪ",
        "Ļ"
      ],
      [
        "åł",
        "ª"
      ],
      [
        "åł",
        "Ĥ"
      ],
      [
        "å¹´",
        "èĩ³"
      ],
      [
        "çķ¶",
        "æĻĤ"
      ],
      [
        "äº",
        "¡"
      ],
      [
        "å¥",
        "ĸ"
      ],
      [
        "çĽ",
        "ĳ"
      ],
      [
        "æ³",
        "¨"
      ],
      [
        "ä¹ĭ",
        "å¾Į"
      ],
      [
        "å¤",
        "ĩ"
      ],
      [
        "åº",
        "ı"
      ],
      [
        "æŃĮ",
        "æĽ²"
      ],
      [
        "äºĨ",
        "ä¸Ģ"
      ],
      [
        "èµ",
        "«"
      ],
      [
        "æ´»",
        "åĭķ"
      ],
      [
        "å³",
        "°"
      ],
      [
        "åıĥ",
        "èĪĩ"
      ],
      [
        "ä¸»",
        "å¸Ń"
      ],
      [
        "è´",
        "¨"
      ],
      [
        "è¦ģ",
        "æ±Ĥ"
      ],
      [
        "åĤ",
        "Ļ"
      ],
      [
        "çĿ",
        "£"
      ],
      [
        "åľ",
        "į"
      ],
      [
        "ä¸ĭ",
        "åįĪ"
      ],
      [
        "åģ",
        "ĩ"
      ],
      [
        "è²",
        "»"
      ],
      [
        "æ¯Ķ",
        "èµĽ"
      ],
      [
        "èĹ",
        "ı"
      ],
      [
        "åĽ",
        "Ń"
      ],
      [
        "éĢ",
        "ģ"
      ],
      [
        "ç¦",
        "»"
      ],
      [
        "ç¥",
        "ĸ"
      ],
      [
        "æĪĲ",
        "åĬŁ"
      ],
      [
        "éĺ¿",
        "èĤ¯"
      ],
      [
        "è²",
        "Ŀ"
      ],
      [
        "ç¹",
        "¼"
      ],
      [
        "æľ",
        "Ľ"
      ],
      [
        "æĺ",
        "ł"
      ],
      [
        "æ¿",
        "Ł"
      ],
      [
        "éĺ¿èĤ¯",
        "èī²"
      ],
      [
        "æ",
        "ª"
      ],
      [
        "æ¡",
        "¥"
      ],
      [
        "é£",
        "Ľ"
      ],
      [
        "å®£",
        "å¸ĥ"
      ],
      [
        "éĺ¿èĤ¯èī²",
        "å·ŀ"
      ],
      [
        "ç½Ĺ",
        "æĸ¯"
      ],
      [
        "çĶ·",
        "åŃĲ"
      ],
      [
        "é",
        "³"
      ],
      [
        "ä¸Ń",
        "åįİ"
      ],
      [
        "ç»",
        "Ļ"
      ],
      [
        "i",
        "on"
      ],
      [
        "æ¯",
        "Ĵ"
      ],
      [
        "o",
        "m"
      ],
      [
        "é",
        "¬"
      ],
      [
        "äº",
        "ī"
      ],
      [
        "åº",
        "Ĺ"
      ],
      [
        "è¯",
        "ķ"
      ],
      [
        "åĩº",
        "çĶŁ"
      ],
      [
        "è®",
        "ĵ"
      ],
      [
        "èĪ",
        "ŀ"
      ],
      [
        "æ¬",
        "¾"
[...]
